{
  "version": "1.0",
  "truncation": null,
  "padding": null,
  "added_tokens": [
    {
      "id": 0,
      "content": "[PAD]",
      "single_word": false,
      "lstrip": false,
      "rstrip": false,
      "normalized": false,
      "special": true
    },
    {
      "id": 1,
      "content": "[UNK]",
      "single_word": false,
      "lstrip": false,
      "rstrip": false,
      "normalized": false,
      "special": true
    },
    {
      "id": 2,
      "content": "[CLS]",
      "single_word": false,
      "lstrip": false,
      "rstrip": false,
      "normalized": false,
      "special": true
    },
    {
      "id": 3,
      "content": "[SEP]",
      "single_word": false,
      "lstrip": false,
      "rstrip": false,
      "normalized": false,
      "special": true
    },
    {
      "id": 4,
      "content": "[MASK]",
      "single_word": false,
      "lstrip": false,
      "rstrip": false,
      "normalized": false,
      "special": true
    }
  ],
  "normalizer": {
    "type": "BertNormalizer",
    "clean_text": true,
    "handle_chinese_chars": true,
    "strip_accents": null,
    "lowercase": true
  },
  "pre_tokenizer": {
    "type": "BertPreTokenizer"
  },
  "post_processor": {
    "type": "TemplateProcessing",
    "single": [
      {
        "SpecialToken": {
          "id": "[CLS]",
          "type_id": 0
        }
      },
      {
        "Sequence": {
          "id": "A",
          "type_id": 0
        }
      },
      {
        "SpecialToken": {
          "id": "[SEP]",
          "type_id": 0
        }
      }
    ],
    "pair": [
      {
        "SpecialToken": {
          "id": "[CLS]",
          "type_id": 0
        }
      },
      {
        "Sequence": {
          "id": "A",
          "type_id": 0
        }
      },
      {
        "SpecialToken": {
          "id": "[SEP]",
          "type_id": 0
        }
      },
      {
        "Sequence": {
          "id": "B",
          "type_id": 1
        }
      },
      {
        "SpecialToken": {
          "id": "[SEP]",
          "type_id": 1
        }
      }
    ],
    "special_tokens": {
      "[CLS]": {
        "id": "[CLS]",
        "ids": [
          2
        ],
        "tokens": [
          "[CLS]"
        ]
      },
      "[SEP]": {
        "id": "[SEP]",
        "ids": [
          3
        ],
        "tokens": [
          "[SEP]"
        ]
      }
    }
  },
  "decoder": {
    "type": "WordPiece",
    "prefix": "##",
    "cleanup": true
  },
  "model": {
    "type": "WordPiece",
    "unk_token": "[UNK]",
    "continuing_subword_prefix": "##",
    "max_input_chars_per_word": 100,
    "vocab": {
      "[PAD]": 0,
      "[UNK]": 1,
      "[CLS]": 2,
      "[SEP]": 3,
      "[MASK]": 4,
      "a": 5,
      "b": 6,
      "c": 7,
      "d": 8,
      "e": 9,
      "f": 10,
      "g": 11,
      "h": 12,
      "i": 13,
      "j": 14,
      "k": 15,
      "l": 16,
      "m": 17,
      "n": 18,
      "o": 19,
      "p": 20,
      "q": 21,
      "r": 22,
      "s": 23,
      "t": 24,
      "u": 25,
      "v": 26,
      "w": 27,
      "x": 28,
      "y": 29,
      "z": 30,
      "##o": 31,
      "##i": 32,
      "##n": 33,
      "##t": 34,
      "##s": 35,
      "##h": 36,
      "##r": 37,
      "##l": 38,
      "##e": 39,
      "##d": 40,
      "##v": 41,
      "##y": 42,
      "##b": 43,
      "##u": 44,
      "##a": 45,
      "##p": 46,
      "##c": 47,
      "##f": 48,
      "##g": 49,
      "##z": 50,
      "##m": 51,
      "##w": 52,
      "##x": 53,
      "##q": 54,
      "##k": 55,
      "##j": 56,
      "##el": 57,
      "##in": 58,
      "th": 59,
      "fe": 60,
      "feel": 61,
      "##ing": 62,
      "##er": 63,
      "##nd": 64,
      "##ed": 65,
      "##at": 66,
      "the": 67,
      "to": 68,
      "##ou": 69,
      "and": 70,
      "##en": 71,
      "##or": 72,
      "##es": 73,
      "##on": 74,
      "##it": 75,
      "##an": 76,
      "##ll": 77,
      "##is": 78,
      "##ar": 79,
      "be": 80,
      "of": 81,
      "feeling": 82,
      "##as": 83,
      "##om": 84,
      "in": 85,
      "that": 86,
      "##ve": 87,
      "my": 88,
      "##re": 89,
      "##le": 90,
      "##us": 91,
      "wh": 92,
      "##ke": 93,
      "##ot": 94,
      "##ut": 95,
      "ha": 96,
      "li": 97,
      "##ow": 98,
      "it": 99,
      "##ay": 100,
      "##et": 101,
      "##ic": 102,
      "st": 103,
      "re": 104,
      "##al": 105,
      "im": 106,
      "like": 107,
      "##gh": 108,
      "so": 109,
      "##ent": 110,
      "##ly": 111,
      "me": 112,
      "on": 113,
      "for": 114,
      "##ld": 115,
      "##id": 116,
      "am": 117,
      "##ess": 118,
      "##all": 119,
      "##im": 120,
      "##ith": 121,
      "was": 122,
      "is": 123,
      "##ac": 124,
      "##ver": 125,
      "with": 126,
      "but": 127,
      "have": 128,
      "ab": 129,
      "##ion": 130,
      "##os": 131,
      "##ad": 132,
      "##out": 133,
      "##ant": 134,
      "this": 135,
      "not": 136,
      "##ust": 137,
      "you": 138,
      "an": 139,
      "##ur": 140,
      "as": 141,
      "##ul": 142,
      "##ally": 143,
      "sh": 144,
      "##ch": 145,
      "##ir": 146,
      "about": 147,
      "##oo": 148,
      "##ght": 149,
      "som": 150,
      "##ill": 151,
      "do": 152,
      "##th": 153,
      "##ould": 154,
      "##ec": 155,
      "at": 156,
      "##ri": 157,
      "##pp": 158,
      "##ore": 159,
      "##ere": 160,
      "##ous": 161,
      "su": 162,
      "##am": 163,
      "just": 164,
      "##ter": 165,
      "##op": 166,
      "he": 167,
      "ne": 168,
      "when": 169,
      "##ee": 170,
      "al": 171,
      "or": 172,
      "##ain": 173,
      "bec": 174,
      "##ce": 175,
      "##art": 176,
      "all": 177,
      "##use": 178,
      "##ful": 179,
      "##ause": 180,
      "pr": 181,
      "con": 182,
      "wor": 183,
      "go": 184,
      "because": 185,
      "##ers": 186,
      "com": 187,
      "##ight": 188,
      "kn": 189,
      "more": 190,
      "ch": 191,
      "##ate": 192,
      "un": 193,
      "ex": 194,
      "up": 195,
      "##ab": 196,
      "##elf": 197,
      "can": 198,
      "some": 199,
      "ma": 200,
      "don": 201,
      "fr": 202,
      "know": 203,
      "##se": 204,
      "lo": 205,
      "tim": 206,
      "tr": 207,
      "get": 208,
      "##king": 209,
      "##itt": 210,
      "out": 211,
      "##ated": 212,
      "##ort": 213,
      "##ive": 214,
      "##ely": 215,
      "really": 216,
      "we": 217,
      "are": 218,
      "##nt": 219,
      "##ery": 220,
      "##il": 221,
      "##ist": 222,
      "##ost": 223,
      "by": 224,
      "##one": 225,
      "##ough": 226,
      "##self": 227,
      "very": 228,
      "##end": 229,
      "##ind": 230,
      "ever": 231,
      "##ell": 232,
      "want": 233,
      "been": 234,
      "##ag": 235,
      "if": 236,
      "how": 237,
      "##est": 238,
      "what": 239,
      "le": 240,
      "en": 241,
      "pe": 242,
      "##un": 243,
      "myself": 244,
      "##hing": 245,
      "time": 246,
      "##ect": 247,
      "##her": 248,
      "##ol": 249,
      "de": 250,
      "##ong": 251,
      "##ays": 252,
      "any": 253,
      "##ast": 254,
      "##fe": 255,
      "##ittle": 256,
      "little": 257,
      "had": 258,
      "##ven": 259,
      "will": 260,
      "thin": 261,
      "##ct": 262,
      "they": 263,
      "##um": 264,
      "did": 265,
      "##st": 266,
      "who": 267,
      "now": 268,
      "##ation": 269,
      "somet": 270,
      "##ty": 271,
      "sp": 272,
      "##ard": 273,
      "from": 274,
      "would": 275,
      "str": 276,
      "being": 277,
      "peop": 278,
      "them": 279,
      "##ving": 280,
      "thing": 281,
      "people": 282,
      "bit": 283,
      "her": 284,
      "##ood": 285,
      "dis": 286,
      "##able": 287,
      "ag": 288,
      "bl": 289,
      "every": 290,
      "pre": 291,
      "##ious": 292,
      "##ack": 293,
      "##ound": 294,
      "than": 295,
      "ar": 296,
      "even": 297,
      "##ra": 298,
      "int": 299,
      "him": 300,
      "see": 301,
      "think": 302,
      "still": 303,
      "##pt": 304,
      "over": 305,
      "one": 306,
      "ive": 307,
      "##ass": 308,
      "##ite": 309,
      "##uch": 310,
      "need": 311,
      "could": 312,
      "af": 313,
      "##ose": 314,
      "##ved": 315,
      "##ge": 316,
      "life": 317,
      "##ace": 318,
      "there": 319,
      "##ry": 320,
      "##ook": 321,
      "its": 322,
      "no": 323,
      "pro": 324,
      "make": 325,
      "##ish": 326,
      "##ig": 327,
      "gr": 328,
      "oth": 329,
      "pl": 330,
      "##our": 331,
      "something": 332,
      "##essed": 333,
      "##ure": 334,
      "##ear": 335,
      "love": 336,
      "##and": 337,
      "much": 338,
      "##ie": 339,
      "qu": 340,
      "too": 341,
      "going": 342,
      "##ff": 343,
      "things": 344,
      "wr": 345,
      "##oy": 346,
      "hel": 347,
      "dont": 348,
      "aw": 349,
      "##day": 350,
      "us": 351,
      "##em": 352,
      "happ": 353,
      "start": 354,
      "em": 355,
      "##ich": 356,
      "help": 357,
      "way": 358,
      "##og": 359,
      "##ine": 360,
      "##ome": 361,
      "##riend": 362,
      "##thing": 363,
      "day": 364,
      "cl": 365,
      "##ond": 366,
      "##pr": 367,
      "##ked": 368,
      "##ame": 369,
      "##ile": 370,
      "back": 371,
      "##ity": 372,
      "##ide": 373,
      "she": 374,
      "man": 375,
      "##less": 376,
      "##per": 377,
      "comp": 378,
      "say": 379,
      "##act": 380,
      "pret": 381,
      "gu": 382,
      "has": 383,
      "##ake": 384,
      "res": 385,
      "ad": 386,
      "thr": 387,
      "##reat": 388,
      "good": 389,
      "rel": 390,
      "##ak": 391,
      "pretty": 392,
      "friend": 393,
      "##are": 394,
      "your": 395,
      "off": 396,
      "work": 397,
      "##ade": 398,
      "should": 399,
      "sa": 400,
      "into": 401,
      "##ies": 402,
      "cont": 403,
      "##ting": 404,
      "##ning": 405,
      "##ud": 406,
      "ins": 407,
      "which": 408,
      "ac": 409,
      "right": 410,
      "##ways": 411,
      "##iss": 412,
      "again": 413,
      "his": 414,
      "after": 415,
      "their": 416,
      "always": 417,
      "part": 418,
      "##so": 419,
      "these": 420,
      "other": 421,
      "rem": 422,
      "##ment": 423,
      "try": 424,
      "##uc": 425,
      "##ft": 426,
      "##own": 427,
      "read": 428,
      "wee": 429,
      "##ble": 430,
      "##od": 431,
      "only": 432,
      "act": 433,
      "##oc": 434,
      "also": 435,
      "year": 436,
      "di": 437,
      "##wh": 438,
      "feelings": 439,
      "br": 440,
      "feels": 441,
      "hop": 442,
      "then": 443,
      "##ick": 444,
      "##ach": 445,
      "##other": 446,
      "##ually": 447,
      "pers": 448,
      "today": 449,
      "bet": 450,
      "##ought": 451,
      "most": 452,
      "id": 453,
      "supp": 454,
      "##ber": 455,
      "##ward": 456,
      "got": 457,
      "##az": 458,
      "##eep": 459,
      "sm": 460,
      "##ool": 461,
      "around": 462,
      "cant": 463,
      "##ily": 464,
      "co": 465,
      "##ull": 466,
      "person": 467,
      "let": 468,
      "tal": 469,
      "kind": 470,
      "sc": 471,
      "##ened": 472,
      "##ence": 473,
      "long": 474,
      "were": 475,
      "made": 476,
      "##ip": 477,
      "##iz": 478,
      "##int": 479,
      "##ath": 480,
      "##ice": 481,
      "##ions": 482,
      "though": 483,
      "##ree": 484,
      "our": 485,
      "look": 486,
      "##ue": 487,
      "se": 488,
      "through": 489,
      "well": 490,
      "real": 491,
      "##ured": 492,
      "app": 493,
      "here": 494,
      "less": 495,
      "##ha": 496,
      "bel": 497,
      "dr": 498,
      "##kes": 499,
      "##cept": 500,
      "down": 501,
      "per": 502,
      "thought": 503,
      "##ult": 504,
      "##ied": 505,
      "##elt": 506,
      "never": 507,
      "didnt": 508,
      "those": 509,
      "where": 510,
      "lot": 511,
      "des": 512,
      "mom": 513,
      "felt": 514,
      "may": 515,
      "##we": 516,
      "find": 517,
      "someone": 518,
      "heart": 519,
      "ter": 520,
      "gl": 521,
      "week": 522,
      "##med": 523,
      "new": 524,
      "##ather": 525,
      "fa": 526,
      "##ang": 527,
      "sl": 528,
      "sin": 529,
      "doing": 530,
      "##ci": 531,
      "happy": 532,
      "days": 533,
      "##ens": 534,
      "cr": 535,
      "having": 536,
      "##ild": 537,
      "##oint": 538,
      "stu": 539,
      "quite": 540,
      "makes": 541,
      "und": 542,
      "##fort": 543,
      "##wn": 544,
      "sure": 545,
      "##age": 546,
      "mo": 547,
      "##pect": 548,
      "##ange": 549,
      "##eci": 550,
      "enough": 551,
      "gen": 552,
      "##ten": 553,
      "##fied": 554,
      "many": 555,
      "conf": 556,
      "home": 557,
      "##oss": 558,
      "##tain": 559,
      "imp": 560,
      "##ves": 561,
      "##fore": 562,
      "does": 563,
      "end": 564,
      "fl": 565,
      "##ap": 566,
      "dist": 567,
      "anything": 568,
      "##pl": 569,
      "##ont": 570,
      "##ep": 571,
      "away": 572,
      "friends": 573,
      "##ance": 574,
      "##ired": 575,
      "last": 576,
      "##leas": 577,
      "why": 578,
      "come": 579,
      "left": 580,
      "hope": 581,
      "dec": 582,
      "fam": 583,
      "tell": 584,
      "##vent": 585,
      "##com": 586,
      "everything": 587,
      "better": 588,
      "terri": 589,
      "##tt": 590,
      "fin": 591,
      "without": 592,
      "keep": 593,
      "pass": 594,
      "##get": 595,
      "amaz": 596,
      "blog": 597,
      "before": 598,
      "##imes": 599,
      "support": 600,
      "own": 601,
      "take": 602,
      "##ations": 603,
      "te": 604,
      "##ember": 605,
      "ph": 606,
      "wond": 607,
      "##read": 608,
      "ang": 609,
      "world": 610,
      "tw": 611,
      "##atch": 612,
      "getting": 613,
      "mor": 614,
      "##ib": 615,
      "accept": 616,
      "##qu": 617,
      "while": 618,
      "sometimes": 619,
      "wonder": 620,
      "htt": 621,
      "##uct": 622,
      "##ms": 623,
      "remember": 624,
      "http": 625,
      "##ug": 626,
      "##ular": 627,
      "car": 628,
      "##aged": 629,
      "bad": 630,
      "such": 631,
      "hon": 632,
      "miss": 633,
      "few": 634,
      "##ans": 635,
      "list": 636,
      "##ents": 637,
      "##iting": 638,
      "post": 639,
      "exc": 640,
      "fir": 641,
      "emot": 642,
      "actually": 643,
      "##be": 644,
      "started": 645,
      "gener": 646,
      "gi": 647,
      "pain": 648,
      "##ited": 649,
      "disc": 650,
      "##oom": 651,
      "trying": 652,
      "put": 653,
      "self": 654,
      "care": 655,
      "##led": 656,
      "##used": 657,
      "first": 658,
      "par": 659,
      "##au": 660,
      "##pressed": 661,
      "jo": 662,
      "hard": 663,
      "##iv": 664,
      "child": 665,
      "##peri": 666,
      "ill": 667,
      "pleas": 668,
      "able": 669,
      "##ody": 670,
      "##irl": 671,
      "family": 672,
      "##ks": 673,
      "said": 674,
      "##ual": 675,
      "##ness": 676,
      "##ating": 677,
      "sad": 678,
      "##ately": 679,
      "times": 680,
      "##ason": 681,
      "ir": 682,
      "swe": 683,
      "book": 684,
      "##ky": 685,
      "##itated": 686,
      "lea": 687,
      "##let": 688,
      "girl": 689,
      "sur": 690,
      "##ortant": 691,
      "cou": 692,
      "sch": 693,
      "##ref": 694,
      "##ject": 695,
      "##orm": 696,
      "hand": 697,
      "##umb": 698,
      "##ird": 699,
      "hate": 700,
      "run": 701,
      "beg": 702,
      "##ffer": 703,
      "href": 704,
      "use": 705,
      "##ict": 706,
      "##fect": 707,
      "sit": 708,
      "hur": 709,
      "rather": 710,
      "att": 711,
      "god": 712,
      "night": 713,
      "tri": 714,
      "wal": 715,
      "##aking": 716,
      "##xt": 717,
      "##imp": 718,
      "call": 719,
      "##ned": 720,
      "##ys": 721,
      "making": 722,
      "##ner": 723,
      "cra": 724,
      "##oke": 725,
      "##leep": 726,
      "cons": 727,
      "hor": 728,
      "es": 729,
      "inc": 730,
      "alread": 731,
      "ext": 732,
      "already": 733,
      "worth": 734,
      "complet": 735,
      "since": 736,
      "fun": 737,
      "##ertain": 738,
      "##oth": 739,
      "alone": 740,
      "##whel": 741,
      "mon": 742,
      "##gy": 743,
      "##eless": 744,
      "del": 745,
      "give": 746,
      "same": 747,
      "##ny": 748,
      "overwhel": 749,
      "##erst": 750,
      "##ump": 751,
      "##gr": 752,
      "##ush": 753,
      "rec": 754,
      "##ionate": 755,
      "appre": 756,
      "##fortable": 757,
      "others": 758,
      "val": 759,
      "##ory": 760,
      "##ical": 761,
      "ass": 762,
      "old": 763,
      "toward": 764,
      "two": 765,
      "morning": 766,
      "irr": 767,
      "cle": 768,
      "point": 769,
      "nothing": 770,
      "rest": 771,
      "ener": 772,
      "yet": 773,
      "often": 774,
      "strong": 775,
      "years": 776,
      "sweet": 777,
      "sleep": 778,
      "##cess": 779,
      "##ise": 780,
      "hurt": 781,
      "##usted": 782,
      "el": 783,
      "write": 784,
      "stressed": 785,
      "##ished": 786,
      "place": 787,
      "belie": 788,
      "underst": 789,
      "hum": 790,
      "might": 791,
      "watch": 792,
      "##ored": 793,
      "##ented": 794,
      "##ppy": 795,
      "##he": 796,
      "reg": 797,
      "##ooking": 798,
      "head": 799,
      "dev": 800,
      "##ense": 801,
      "show": 802,
      "cur": 803,
      "##joy": 804,
      "weird": 805,
      "school": 806,
      "sat": 807,
      "word": 808,
      "lear": 809,
      "strange": 810,
      "moment": 811,
      "##ub": 812,
      "##ared": 813,
      "inter": 814,
      "##etic": 815,
      "enjoy": 816,
      "amazing": 817,
      "overwhelmed": 818,
      "ve": 819,
      "##erv": 820,
      "##ary": 821,
      "##amed": 822,
      "play": 823,
      "emotion": 824,
      "wa": 825,
      "wom": 826,
      "##ever": 827,
      "##gn": 828,
      "suc": 829,
      "great": 830,
      "didn": 831,
      "face": 832,
      "art": 833,
      "guess": 834,
      "##app": 835,
      "adm": 836,
      "understand": 837,
      "##oll": 838,
      "##ia": 839,
      "month": 840,
      "reason": 841,
      "another": 842,
      "mar": 843,
      "##igh": 844,
      "stop": 845,
      "##ably": 846,
      "looking": 847,
      "##ced": 848,
      "##gic": 849,
      "##ire": 850,
      "##br": 851,
      "whole": 852,
      "thinking": 853,
      "##ised": 854,
      "anx": 855,
      "excited": 856,
      "class": 857,
      "angry": 858,
      "each": 859,
      "fuc": 860,
      "##ream": 861,
      "experi": 862,
      "anyone": 863,
      "valu": 864,
      "##hip": 865,
      "done": 866,
      "thank": 867,
      "wrong": 868,
      "##athetic": 869,
      "lost": 870,
      "sy": 871,
      "##isfied": 872,
      "once": 873,
      "##istic": 874,
      "bur": 875,
      "##most": 876,
      "char": 877,
      "loved": 878,
      "everyone": 879,
      "fact": 880,
      "fear": 881,
      "##oub": 882,
      "wanted": 883,
      "esp": 884,
      "hes": 885,
      "hour": 886,
      "kid": 887,
      "mean": 888,
      "##ustr": 889,
      "sub": 890,
      "almost": 891,
      "##ecially": 892,
      "ind": 893,
      "##oved": 894,
      "completely": 895,
      "went": 896,
      "blessed": 897,
      "guil": 898,
      "ear": 899,
      "free": 900,
      "past": 901,
      "##les": 902,
      "##atter": 903,
      "##ently": 904,
      "next": 905,
      "talk": 906,
      "especially": 907,
      "body": 908,
      "##ute": 909,
      "ann": 910,
      "realiz": 911,
      "maybe": 912,
      "ach": 913,
      "ok": 914,
      "##ater": 915,
      "##ase": 916,
      "important": 917,
      "accepted": 918,
      "mind": 919,
      "ob": 920,
      "##pid": 921,
      "##ons": 922,
      "##aring": 923,
      "partic": 924,
      "bu": 925,
      "inst": 926,
      "##ident": 927,
      "speci": 928,
      "helpless": 929,
      "passionate": 930,
      "hated": 931,
      "sor": 932,
      "##ret": 933,
      "writing": 934,
      "cold": 935,
      "min": 936,
      "op": 937,
      "sk": 938,
      "sort": 939,
      "tur": 940,
      "tired": 941,
      "must": 942,
      "##osit": 943,
      "else": 944,
      "dam": 945,
      "joy": 946,
      "inv": 947,
      "##aught": 948,
      "gre": 949,
      "##oud": 950,
      "##arr": 951,
      "##ouse": 952,
      "prod": 953,
      "stupid": 954,
      "press": 955,
      "perfect": 956,
      "ey": 957,
      "##ling": 958,
      "frustr": 959,
      "##raid": 960,
      "##aken": 961,
      "ide": 962,
      "det": 963,
      "found": 964,
      "tot": 965,
      "##rem": 966,
      "afraid": 967,
      "believe": 968,
      "creat": 969,
      "posit": 970,
      "ser": 971,
      "##til": 972,
      "least": 973,
      "slight": 974,
      "distr": 975,
      "sec": 976,
      "##ude": 977,
      "ho": 978,
      "##av": 979,
      "##ash": 980,
      "uns": 981,
      "##itting": 982,
      "def": 983,
      "agitated": 984,
      "full": 985,
      "lon": 986,
      "##ail": 987,
      "##ative": 988,
      "soci": 989,
      "job": 990,
      "towards": 991,
      "particular": 992,
      "stud": 993,
      "trust": 994,
      "mis": 995,
      "##uring": 996,
      "comm": 997,
      "starting": 998,
      "leave": 999,
      "best": 1000,
      "sense": 1001,
      "##ention": 1002,
      "boy": 1003,
      "##dd": 1004,
      "##ps": 1005,
      "##fic": 1006,
      "until": 1007,
      "far": 1008,
      "lately": 1009,
      "mus": 1010,
      "##ew": 1011,
      "told": 1012,
      "inside": 1013,
      "##ax": 1014,
      "share": 1015,
      "anxious": 1016,
      "bre": 1017,
      "big": 1018,
      "low": 1019,
      "##oid": 1020,
      "##red": 1021,
      "heal": 1022,
      "pres": 1023,
      "dep": 1024,
      "contr": 1025,
      "bab": 1026,
      "eas": 1027,
      "##ces": 1028,
      "##vers": 1029,
      "used": 1030,
      "chr": 1031,
      "thankful": 1032,
      "product": 1033,
      "cal": 1034,
      "house": 1035,
      "wish": 1036,
      "tor": 1037,
      "##ged": 1038,
      "##ined": 1039,
      "##ors": 1040,
      "##ord": 1041,
      "wasnt": 1042,
      "##antic": 1043,
      "##illed": 1044,
      "coming": 1045,
      "unc": 1046,
      "supporting": 1047,
      "nerv": 1048,
      "set": 1049,
      "##eal": 1050,
      "##iness": 1051,
      "thats": 1052,
      "differ": 1053,
      "##pected": 1054,
      "generous": 1055,
      "sorry": 1056,
      "bother": 1057,
      "ke": 1058,
      "luc": 1059,
      "##orn": 1060,
      "##ank": 1061,
      "##icious": 1062,
      "stay": 1063,
      "glad": 1064,
      "extrem": 1065,
      "hom": 1066,
      "pop": 1067,
      "tend": 1068,
      "yes": 1069,
      "##vely": 1070,
      "##ings": 1071,
      "live": 1072,
      "##ained": 1073,
      "become": 1074,
      "somewh": 1075,
      "depressed": 1076,
      "disapp": 1077,
      "slightly": 1078,
      "nervous": 1079,
      "bra": 1080,
      "poss": 1081,
      "taking": 1082,
      "unw": 1083,
      "peace": 1084,
      "##ign": 1085,
      "emb": 1086,
      "insp": 1087,
      "words": 1088,
      "special": 1089,
      "eff": 1090,
      "##ible": 1091,
      "ton": 1092,
      "##ateful": 1093,
      "wonderful": 1094,
      "surpr": 1095,
      "appreci": 1096,
      "annoy": 1097,
      "cool": 1098,
      "##aut": 1099,
      "loving": 1100,
      "prob": 1101,
      "happen": 1102,
      "contin": 1103,
      "guilty": 1104,
      "##yp": 1105,
      "amp": 1106,
      "##chy": 1107,
      "working": 1108,
      "add": 1109,
      "##ulted": 1110,
      "##ibly": 1111,
      "situ": 1112,
      "probably": 1113,
      "##uth": 1114,
      "plan": 1115,
      "emp": 1116,
      "##press": 1117,
      "honest": 1118,
      "came": 1119,
      "##ati": 1120,
      "bed": 1121,
      "certain": 1122,
      "deep": 1123,
      "hot": 1124,
      "##ok": 1125,
      "ref": 1126,
      "stuff": 1127,
      "success": 1128,
      "lonely": 1129,
      "##ren": 1130,
      "##cious": 1131,
      "scared": 1132,
      "months": 1133,
      "totally": 1134,
      "high": 1135,
      "##ider": 1136,
      "super": 1137,
      "cho": 1138,
      "exha": 1139,
      "saying": 1140,
      "relax": 1141,
      "reading": 1142,
      "begin": 1143,
      "emotional": 1144,
      "sym": 1145,
      "frustrated": 1146,
      "christ": 1147,
      "room": 1148,
      "##uly": 1149,
      "##ically": 1150,
      "##ided": 1151,
      "ash": 1152,
      "##ters": 1153,
      "proud": 1154,
      "relations": 1155,
      "under": 1156,
      "ign": 1157,
      "simp": 1158,
      "##als": 1159,
      "##right": 1160,
      "comfortable": 1161,
      "spend": 1162,
      "##iew": 1163,
      "##ments": 1164,
      "horri": 1165,
      "##oken": 1166,
      "during": 1167,
      "fine": 1168,
      "##come": 1169,
      "allow": 1170,
      "##ended": 1171,
      "listen": 1172,
      "extremely": 1173,
      "matter": 1174,
      "##not": 1175,
      "##vious": 1176,
      "mem": 1177,
      "safe": 1178,
      "##ensive": 1179,
      "##arrass": 1180,
      "particularly": 1181,
      "tort": 1182,
      "cry": 1183,
      "sw": 1184,
      "##iol": 1185,
      "beaut": 1186,
      "expl": 1187,
      "confident": 1188,
      "kids": 1189,
      "relationship": 1190,
      "pun": 1191,
      "##vel": 1192,
      "##erm": 1193,
      "##ried": 1194,
      "##astic": 1195,
      "move": 1196,
      "finally": 1197,
      "##ugg": 1198,
      "pa": 1199,
      "pri": 1200,
      "song": 1201,
      "##ple": 1202,
      "##ures": 1203,
      "##irt": 1204,
      "conv": 1205,
      "truly": 1206,
      "##ili": 1207,
      "quest": 1208,
      "thoughts": 1209,
      "faith": 1210,
      "disappoint": 1211,
      "embarrass": 1212,
      "med": 1213,
      "##ah": 1214,
      "##ming": 1215,
      "hear": 1216,
      "count": 1217,
      "positive": 1218,
      "exhausted": 1219,
      "ent": 1220,
      "fut": 1221,
      "inf": 1222,
      "change": 1223,
      "cannot": 1224,
      "ap": 1225,
      "war": 1226,
      "wont": 1227,
      "##bed": 1228,
      "##kward": 1229,
      "##ities": 1230,
      "abs": 1231,
      "admit": 1232,
      "eyes": 1233,
      "mess": 1234,
      "mad": 1235,
      "pet": 1236,
      "woke": 1237,
      "light": 1238,
      "liked": 1239,
      "awkward": 1240,
      "ashamed": 1241,
      "ca": 1242,
      "eat": 1243,
      "##ix": 1244,
      "##erable": 1245,
      "##itable": 1246,
      "##osed": 1247,
      "spent": 1248,
      "walk": 1249,
      "burd": 1250,
      "symp": 1251,
      "tortured": 1252,
      "sn": 1253,
      "##ead": 1254,
      "##more": 1255,
      "toget": 1256,
      "##ition": 1257,
      "stand": 1258,
      "##ither": 1259,
      "grou": 1260,
      "beloved": 1261,
      "terrified": 1262,
      "missed": 1263,
      "consider": 1264,
      "together": 1265,
      "fab": 1266,
      "opt": 1267,
      "viol": 1268,
      "##ying": 1269,
      "##lect": 1270,
      "##antly": 1271,
      "compl": 1272,
      "doesnt": 1273,
      "decided": 1274,
      "children": 1275,
      "funny": 1276,
      "experience": 1277,
      "open": 1278,
      "bothered": 1279,
      "convin": 1280,
      "dream": 1281,
      "mother": 1282,
      "##ier": 1283,
      "##ng": 1284,
      "##ark": 1285,
      "havent": 1286,
      "meet": 1287,
      "neg": 1288,
      "const": 1289,
      "##acted": 1290,
      "defin": 1291,
      "embarrassed": 1292,
      "cour": 1293,
      "sing": 1294,
      "##ink": 1295,
      "story": 1296,
      "knew": 1297,
      "unha": 1298,
      "##olut": 1299,
      "anymore": 1300,
      "content": 1301,
      "caring": 1302,
      "##ollow": 1303,
      "hours": 1304,
      "miserable": 1305,
      "health": 1306,
      "future": 1307,
      "both": 1308,
      "fre": 1309,
      "food": 1310,
      "##der": 1311,
      "rep": 1312,
      "weeks": 1313,
      "amazed": 1314,
      "bo": 1315,
      "mel": 1316,
      "norm": 1317,
      "##ging": 1318,
      "##edy": 1319,
      "beat": 1320,
      "young": 1321,
      "uncom": 1322,
      "knowing": 1323,
      "##unity": 1324,
      "##olved": 1325,
      "seem": 1326,
      "proble": 1327,
      "resent": 1328,
      "irritable": 1329,
      "idea": 1330,
      "creative": 1331,
      "baby": 1332,
      "lucky": 1333,
      "unhappy": 1334,
      "##gly": 1335,
      "ther": 1336,
      "##oring": 1337,
      "##ories": 1338,
      "suffer": 1339,
      "##itty": 1340,
      "usually": 1341,
      "small": 1342,
      "##anger": 1343,
      "energy": 1344,
      "instead": 1345,
      "control": 1346,
      "homes": 1347,
      "inspired": 1348,
      "horrible": 1349,
      "bus": 1350,
      "##na": 1351,
      "##ues": 1352,
      "living": 1353,
      "##ether": 1354,
      "reject": 1355,
      "soon": 1356,
      "lovely": 1357,
      "##ager": 1358,
      "div": 1359,
      "calm": 1360,
      "disappointed": 1361,
      "col": 1362,
      "cute": 1363,
      "numb": 1364,
      "typ": 1365,
      "##how": 1366,
      "##mm": 1367,
      "##its": 1368,
      "shitty": 1369,
      "wear": 1370,
      "##ellow": 1371,
      "diss": 1372,
      "seems": 1373,
      "talented": 1374,
      "##ween": 1375,
      "confused": 1376,
      "determ": 1377,
      "somewhat": 1378,
      "surprised": 1379,
      "jeal": 1380,
      "met": 1381,
      "po": 1382,
      "rich": 1383,
      "rush": 1384,
      "##ount": 1385,
      "conc": 1386,
      "disg": 1387,
      "ago": 1388,
      "##ouraged": 1389,
      "close": 1390,
      "hopeless": 1391,
      "between": 1392,
      "uncertain": 1393,
      "brave": 1394,
      "jealous": 1395,
      "doub": 1396,
      "ed": 1397,
      "fall": 1398,
      "vul": 1399,
      "##har": 1400,
      "##cy": 1401,
      "##elcome": 1402,
      "##pped": 1403,
      "coll": 1404,
      "sex": 1405,
      "terrible": 1406,
      "running": 1407,
      "regret": 1408,
      "satisfied": 1409,
      "women": 1410,
      "popular": 1411,
      "successful": 1412,
      "uncomfortable": 1413,
      "ro": 1414,
      "sick": 1415,
      "ask": 1416,
      "##cho": 1417,
      "somehow": 1418,
      "deal": 1419,
      "spe": 1420,
      "useless": 1421,
      "longer": 1422,
      "selfish": 1423,
      "music": 1424,
      "annoyed": 1425,
      "punished": 1426,
      "vulner": 1427,
      "pur": 1428,
      "piss": 1429,
      "sitting": 1430,
      "vis": 1431,
      "##aw": 1432,
      "##ote": 1433,
      "hair": 1434,
      "isol": 1435,
      "##ulous": 1436,
      "##oney": 1437,
      "insec": 1438,
      "phot": 1439,
      "hold": 1440,
      "unsure": 1441,
      "dull": 1442,
      "side": 1443,
      "##ial": 1444,
      "##ph": 1445,
      "touch": 1446,
      "##ety": 1447,
      "strugg": 1448,
      "talking": 1449,
      "discouraged": 1450,
      "incred": 1451,
      "devast": 1452,
      "woman": 1453,
      "turn": 1454,
      "situation": 1455,
      "pict": 1456,
      "ret": 1457,
      "##if": 1458,
      "##ered": 1459,
      "imag": 1460,
      "sho": 1461,
      "awful": 1462,
      "sinc": 1463,
      "giving": 1464,
      "money": 1465,
      "tre": 1466,
      "##ian": 1467,
      "##nect": 1468,
      "##set": 1469,
      "##bb": 1470,
      "##orge": 1471,
      "##aining": 1472,
      "##ility": 1473,
      "intim": 1474,
      "couldnt": 1475,
      "##oggy": 1476,
      "guy": 1477,
      "relie": 1478,
      "lethar": 1479,
      "##ized": 1480,
      "irritated": 1481,
      "curious": 1482,
      "greedy": 1483,
      "second": 1484,
      "break": 1485,
      "absolut": 1486,
      "vulnerable": 1487,
      "lethargic": 1488,
      "breat": 1489,
      "##side": 1490,
      "##row": 1491,
      "inn": 1492,
      "##ental": 1493,
      "needed": 1494,
      "kinda": 1495,
      "pleasant": 1496,
      "useful": 1497,
      "convinced": 1498,
      "doubt": 1499,
      "absolutely": 1500,
      "ll": 1501,
      "opp": 1502,
      "rom": 1503,
      "##kend": 1504,
      "comes": 1505,
      "leg": 1506,
      "offended": 1507,
      "weekend": 1508,
      "charac": 1509,
      "##dden": 1510,
      "empty": 1511,
      "pissed": 1512,
      "dumb": 1513,
      "danger": 1514,
      "foc": 1515,
      "gorge": 1516,
      "##ove": 1517,
      "##hensive": 1518,
      "##band": 1519,
      "##full": 1520,
      "asked": 1521,
      "sudden": 1522,
      "che": 1523,
      "spir": 1524,
      "insulted": 1525,
      "paran": 1526,
      "interest": 1527,
      "relaxed": 1528,
      "determined": 1529,
      "devastated": 1530,
      "cause": 1531,
      "dri": 1532,
      "event": 1533,
      "either": 1534,
      "follow": 1535,
      "hus": 1536,
      "rude": 1537,
      "impressed": 1538,
      "##pping": 1539,
      "enter": 1540,
      "resp": 1541,
      "phys": 1542,
      "apprehensive": 1543,
      "hesit": 1544,
      "skin": 1545,
      "violent": 1546,
      "melan": 1547,
      "resentful": 1548,
      "rushed": 1549,
      "isolated": 1550,
      "insecure": 1551,
      "gorgeous": 1552,
      "ugly": 1553,
      "vain": 1554,
      "##ww": 1555,
      "##atic": 1556,
      "##ene": 1557,
      "whether": 1558,
      "hal": 1559,
      "youre": 1560,
      "shy": 1561,
      "bitter": 1562,
      "precious": 1563,
      "took": 1564,
      "advent": 1565,
      "against": 1566,
      "gloom": 1567,
      "mov": 1568,
      "hopeful": 1569,
      "valued": 1570,
      "aching": 1571,
      "different": 1572,
      "priv": 1573,
      "rejected": 1574,
      "nice": 1575,
      "##over": 1576,
      "##iful": 1577,
      "##no": 1578,
      "##yle": 1579,
      "##irty": 1580,
      "connect": 1581,
      "remind": 1582,
      "cran": 1583,
      "energet": 1584,
      "watching": 1585,
      "sympathetic": 1586,
      "homesick": 1587,
      "##choly": 1588,
      "husband": 1589,
      "melancholy": 1590,
      "bas": 1591,
      "nost": 1592,
      "pathetic": 1593,
      "##cri": 1594,
      "##ital": 1595,
      "##itely": 1596,
      "##ket": 1597,
      "##otic": 1598,
      "##otten": 1599,
      "iss": 1600,
      "shaken": 1601,
      "defe": 1602,
      "happened": 1603,
      "##ocent": 1604,
      "fucked": 1605,
      "unwelcome": 1606,
      "burdened": 1607,
      "disgusted": 1608,
      "sincere": 1609,
      "half": 1610,
      "energetic": 1611,
      "cre": 1612,
      "ec": 1613,
      "men": 1614,
      "##body": 1615,
      "##friend": 1616,
      "##ates": 1617,
      "##atisfied": 1618,
      "##eng": 1619,
      "##ower": 1620,
      "shoc": 1621,
      "##rived": 1622,
      "smart": 1623,
      "desp": 1624,
      "assured": 1625,
      "##heart": 1626,
      "tonight": 1627,
      "faithful": 1628,
      "innocent": 1629,
      "gloomy": 1630,
      "cranky": 1631,
      "nostal": 1632,
      "lau": 1633,
      "win": 1634,
      "ways": 1635,
      "wake": 1636,
      "www": 1637,
      "##up": 1638,
      "##mas": 1639,
      "threat": 1640,
      "unl": 1641,
      "however": 1642,
      "groggy": 1643,
      "reluct": 1644,
      "parents": 1645,
      "began": 1646,
      "joyful": 1647,
      "tender": 1648,
      "##atient": 1649,
      "simply": 1650,
      "beautiful": 1651,
      "optim": 1652,
      "divine": 1653,
      "intimid": 1654,
      "##ne": 1655,
      "##orous": 1656,
      "weight": 1657,
      "bitchy": 1658,
      "blank": 1659,
      "seeing": 1660,
      "respected": 1661,
      "##ize": 1662,
      "crappy": 1663,
      "worthless": 1664,
      "humili": 1665,
      "valuable": 1666,
      "pressured": 1667,
      "definitely": 1668,
      "dissatisfied": 1669,
      "dangerous": 1670,
      "##fully": 1671,
      "paranoid": 1672,
      "sus": 1673,
      "sent": 1674,
      "##uous": 1675,
      "fest": 1676,
      "top": 1677,
      "inade": 1678,
      "exact": 1679,
      "front": 1680,
      "truth": 1681,
      "ready": 1682,
      "longing": 1683,
      "couple": 1684,
      "hands": 1685,
      "realize": 1686,
      "distracted": 1687,
      "productive": 1688,
      "yester": 1689,
      "peaceful": 1690,
      "honestly": 1691,
      "ignored": 1692,
      "spirit": 1693,
      "hesitant": 1694,
      "inadequ": 1695,
      "sound": 1696,
      "##iec": 1697,
      "##sel": 1698,
      "##ric": 1699,
      "whate": 1700,
      "##ellig": 1701,
      "drained": 1702,
      "honored": 1703,
      "pleased": 1704,
      "books": 1705,
      "course": 1706,
      "beaten": 1707,
      "romantic": 1708,
      "defeated": 1709,
      "reluctant": 1710,
      "humiliated": 1711,
      "yesterday": 1712,
      "dirty": 1713,
      "eager": 1714,
      "gent": 1715,
      "##oun": 1716,
      "##ayed": 1717,
      "shes": 1718,
      "superi": 1719,
      "unimp": 1720,
      "expect": 1721,
      "upset": 1722,
      "troub": 1723,
      "wanting": 1724,
      "progr": 1725,
      "grow": 1726,
      "friendly": 1727,
      "heartbr": 1728,
      "girls": 1729,
      "##ubl": 1730,
      "incredibly": 1731,
      "optimistic": 1732,
      "intimidated": 1733,
      "whatever": 1734,
      "superior": 1735,
      "unimportant": 1736,
      "heartbroken": 1737,
      "fool": 1738,
      "mine": 1739,
      "mellow": 1740,
      "naught": 1741,
      "##air": 1742,
      "beh": 1743,
      "needs": 1744,
      "project": 1745,
      "thrilled": 1746,
      "##while": 1747,
      "worthwhile": 1748,
      "clever": 1749,
      "buy": 1750,
      "serious": 1751,
      "festive": 1752,
      "inadequate": 1753,
      "gentle": 1754,
      "boring": 1755,
      "gone": 1756,
      "mood": 1757,
      "view": 1758,
      "virt": 1759,
      "##ger": 1760,
      "##zy": 1761,
      "##rect": 1762,
      "lives": 1763,
      "ones": 1764,
      "sun": 1765,
      "summ": 1766,
      "chang": 1767,
      "disheart": 1768,
      "intellig": 1769,
      "##oured": 1770,
      "##aky": 1771,
      "broke": 1772,
      "idi": 1773,
      "distur": 1774,
      "emotions": 1775,
      "tried": 1776,
      "experien": 1777,
      "petty": 1778,
      "theres": 1779,
      "disheartened": 1780,
      "fake": 1781,
      "hu": 1782,
      "lous": 1783,
      "piec": 1784,
      "red": 1785,
      "wel": 1786,
      "three": 1787,
      "##ature": 1788,
      "##usion": 1789,
      "near": 1790,
      "uni": 1791,
      "##unate": 1792,
      "##olog": 1793,
      "acc": 1794,
      "fail": 1795,
      "damaged": 1796,
      "christmas": 1797,
      "nostalgic": 1798,
      "threatened": 1799,
      "troubled": 1800,
      "naughty": 1801,
      "welcom": 1802,
      "et": 1803,
      "fant": 1804,
      "pull": 1805,
      "tem": 1806,
      "##omed": 1807,
      "##aded": 1808,
      "unfort": 1809,
      "exam": 1810,
      "##ock": 1811,
      "personal": 1812,
      "lousy": 1813,
      "fur": 1814,
      "gra": 1815,
      "hell": 1816,
      "mot": 1817,
      "oh": 1818,
      "tear": 1819,
      "##sw": 1820,
      "##yal": 1821,
      "state": 1822,
      "forg": 1823,
      "shaky": 1824,
      "loyal": 1825,
      "resolved": 1826,
      "##uck": 1827,
      "decis": 1828,
      "acceptable": 1829,
      "horny": 1830,
      "waiting": 1831,
      "realized": 1832,
      "regretful": 1833,
      "suddenly": 1834,
      "cas": 1835,
      "game": 1836,
      "##ising": 1837,
      "reb": 1838,
      "short": 1839,
      "order": 1840,
      "true": 1841,
      "outside": 1842,
      "eng": 1843,
      "guys": 1844,
      "result": 1845,
      "fair": 1846,
      "supportive": 1847,
      "delicious": 1848,
      "restless": 1849,
      "subm": 1850,
      "suffering": 1851,
      "welcomed": 1852,
      "bar": 1853,
      "fright": 1854,
      "rotten": 1855,
      "ut": 1856,
      "##way": 1857,
      "tom": 1858,
      "##icate": 1859,
      "sol": 1860,
      "answ": 1861,
      "lead": 1862,
      "bring": 1863,
      "supposed": 1864,
      "discont": 1865,
      "called": 1866,
      "##umpy": 1867,
      "human": 1868,
      "wronged": 1869,
      "privile": 1870,
      "shocked": 1871,
      "disturbed": 1872,
      "air": 1873,
      "lame": 1874,
      "later": 1875,
      "treat": 1876,
      "reass": 1877,
      "whenever": 1878,
      "along": 1879,
      "pray": 1880,
      "ungr": 1881,
      "##unch": 1882,
      "impatient": 1883,
      "honoured": 1884,
      "given": 1885,
      "continue": 1886,
      "normal": 1887,
      "relieved": 1888,
      "##selves": 1889,
      "summer": 1890,
      "intelligent": 1891,
      "eating": 1892,
      "mid": 1893,
      "pol": 1894,
      "wasn": 1895,
      "except": 1896,
      "needy": 1897,
      "grateful": 1898,
      "grumpy": 1899,
      "slow": 1900,
      "learn": 1901,
      "fearful": 1902,
      "country": 1903,
      "warm": 1904,
      "exactly": 1905,
      "behind": 1906,
      "virtuous": 1907,
      "discontent": 1908,
      "ungrateful": 1909,
      "av": 1910,
      "lack": 1911,
      "mention": 1912,
      "publ": 1913,
      "sens": 1914,
      "taken": 1915,
      "##orated": 1916,
      "##utes": 1917,
      "style": 1918,
      "##urous": 1919,
      "doomed": 1920,
      "pregn": 1921,
      "terrific": 1922,
      "clean": 1923,
      "trusting": 1924,
      "deprived": 1925,
      "effort": 1926,
      "fabulous": 1927,
      "frightened": 1928,
      "fig": 1929,
      "fond": 1930,
      "hol": 1931,
      "nor": 1932,
      "##ave": 1933,
      "##cc": 1934,
      "rece": 1935,
      "isnt": 1936,
      "##eck": 1937,
      "quick": 1938,
      "descri": 1939,
      "team": 1940,
      "listless": 1941,
      "generally": 1942,
      "problems": 1943,
      "opport": 1944,
      "focus": 1945,
      "adventurous": 1946,
      "laugh": 1947,
      "fantastic": 1948,
      "unfortunate": 1949,
      "rebell": 1950,
      "privileged": 1951,
      "fight": 1952,
      "##ike": 1953,
      "##free": 1954,
      "step": 1955,
      "forward": 1956,
      "##iday": 1957,
      "##though": 1958,
      "although": 1959,
      "express": 1960,
      "##ung": 1961,
      "accom": 1962,
      "smug": 1963,
      "carefree": 1964,
      "leaving": 1965,
      "clear": 1966,
      "speak": 1967,
      "rebellious": 1968,
      "name": 1969,
      "##itch": 1970,
      "##uss": 1971,
      "##ession": 1972,
      "within": 1973,
      "ant": 1974,
      "convers": 1975,
      "stress": 1976,
      "##ffic": 1977,
      "saw": 1978,
      "direct": 1979,
      "triump": 1980,
      "artistic": 1981,
      "foolish": 1982,
      "etc": 1983,
      "reassured": 1984,
      "triumph": 1985,
      "cut": 1986,
      "fil": 1987,
      "main": 1988,
      "pay": 1989,
      "##aster": 1990,
      "##ime": 1991,
      "##osing": 1992,
      "becom": 1993,
      "prot": 1994,
      "unp": 1995,
      "wouldnt": 1996,
      "##igorated": 1997,
      "using": 1998,
      "compan": 1999,
      "adv": 2000,
      "smile": 2001,
      "sever": 2002,
      "gift": 2003,
      "##ively": 2004,
      "learning": 2005,
      "minutes": 2006,
      "invigorated": 2007,
      "single": 2008,
      "type": 2009,
      "dad": 2010,
      "dra": 2011,
      "power": 2012,
      "wind": 2013,
      "##ele": 2014,
      "##orrow": 2015,
      "##ones": 2016,
      "##ances": 2017,
      "reach": 2018,
      "amount": 2019,
      "##irth": 2020,
      "goes": 2021,
      "level": 2022,
      "prov": 2023,
      "suppose": 2024,
      "stubb": 2025,
      "##ape": 2026,
      "telling": 2027,
      "delight": 2028,
      "curr": 2029,
      "wait": 2030,
      "beginning": 2031,
      "question": 2032,
      "constantly": 2033,
      "retur": 2034,
      "movie": 2035,
      "ecst": 2036,
      "submiss": 2037,
      "utter": 2038,
      "stubborn": 2039,
      "birth": 2040,
      "jaded": 2041,
      "pot": 2042,
      "sis": 2043,
      "sim": 2044,
      "vo": 2045,
      "vital": 2046,
      "wall": 2047,
      "##io": 2048,
      "##bly": 2049,
      "##gg": 2050,
      "abused": 2051,
      "chance": 2052,
      "exp": 2053,
      "trans": 2054,
      "##akes": 2055,
      "deser": 2056,
      "desire": 2057,
      "phone": 2058,
      "putting": 2059,
      "walked": 2060,
      "learned": 2061,
      "fucking": 2062,
      "students": 2063,
      "##ength": 2064,
      "triumphant": 2065,
      "ecstatic": 2066,
      "daz": 2067,
      "dark": 2068,
      "fo": 2069,
      "host": 2070,
      "occ": 2071,
      "sou": 2072,
      "ske": 2073,
      "##ishing": 2074,
      "worry": 2075,
      "comments": 2076,
      "chall": 2077,
      "gets": 2078,
      "##earch": 2079,
      "##ode": 2080,
      "moments": 2081,
      "fav": 2082,
      "attention": 2083,
      "damn": 2084,
      "easy": 2085,
      "unloved": 2086,
      "susp": 2087,
      "jour": 2088,
      "loss": 2089,
      "vict": 2090,
      "##ife": 2091,
      "##hib": 2092,
      "##form": 2093,
      "##ork": 2094,
      "##esh": 2095,
      "##ices": 2096,
      "shit": 2097,
      "##amp": 2098,
      "chur": 2099,
      "##ptical": 2100,
      "contented": 2101,
      "moving": 2102,
      "delicate": 2103,
      "effect": 2104,
      "entertain": 2105,
      "casual": 2106,
      "submissive": 2107,
      "da": 2108,
      "four": 2109,
      "lose": 2110,
      "race": 2111,
      "water": 2112,
      "##land": 2113,
      "##book": 2114,
      "##ught": 2115,
      "##man": 2116,
      "##ism": 2117,
      "##omach": 2118,
      "##ics": 2119,
      "stomach": 2120,
      "worried": 2121,
      "upon": 2122,
      "frantic": 2123,
      "loc": 2124,
      "envious": 2125,
      "age": 2126,
      "prep": 2127,
      "seen": 2128,
      "##haps": 2129,
      "perhaps": 2130,
      "possible": 2131,
      "appreciative": 2132,
      "group": 2133,
      "healthy": 2134,
      "concer": 2135,
      "colle": 2136,
      "tomorrow": 2137,
      "opportunity": 2138,
      "skeptical": 2139,
      "father": 2140,
      "rid": 2141,
      "ur": 2142,
      "##sh": 2143,
      "##sy": 2144,
      "##att": 2145,
      "means": 2146,
      "##outh": 2147,
      "pract": 2148,
      "space": 2149,
      "ground": 2150,
      "throw": 2151,
      "party": 2152,
      "glam": 2153,
      "news": 2154,
      "doesn": 2155,
      "intern": 2156,
      "unpleas": 2157,
      "din": 2158,
      "ele": 2159,
      "kiss": 2160,
      "pick": 2161,
      "push": 2162,
      "son": 2163,
      "sar": 2164,
      "##vi": 2165,
      "##eric": 2166,
      "##iter": 2167,
      "##itle": 2168,
      "forget": 2169,
      "thanks": 2170,
      "affect": 2171,
      "prof": 2172,
      "finish": 2173,
      "trip": 2174,
      "early": 2175,
      "easily": 2176,
      "imagine": 2177,
      "despite": 2178,
      "sentim": 2179,
      "seriously": 2180,
      "grand": 2181,
      "dazed": 2182,
      "unpleasant": 2183,
      "due": 2184,
      "fit": 2185,
      "won": 2186,
      "##rc": 2187,
      "amused": 2188,
      "##illy": 2189,
      "comfort": 2190,
      "wearing": 2191,
      "##ending": 2192,
      "enc": 2193,
      "arms": 2194,
      "looks": 2195,
      "dress": 2196,
      "extra": 2197,
      "strongly": 2198,
      "social": 2199,
      "present": 2200,
      "kept": 2201,
      "messy": 2202,
      "accompl": 2203,
      "church": 2204,
      "fing": 2205,
      "har": 2206,
      "late": 2207,
      "mil": 2208,
      "rad": 2209,
      "src": 2210,
      "##iel": 2211,
      "##ro": 2212,
      "##line": 2213,
      "##cing": 2214,
      "##orse": 2215,
      "##ane": 2216,
      "##ots": 2217,
      "sto": 2218,
      "react": 2219,
      "americ": 2220,
      "##rib": 2221,
      "prop": 2222,
      "worked": 2223,
      "known": 2224,
      "trag": 2225,
      "wants": 2226,
      "##empt": 2227,
      "clos": 2228,
      "brain": 2229,
      "season": 2230,
      "anger": 2231,
      "missing": 2232,
      "please": 2233,
      "walking": 2234,
      "crazy": 2235,
      "distressed": 2236,
      "##ails": 2237,
      "deeply": 2238,
      "explain": 2239,
      "characters": 2240,
      "piece": 2241,
      "sentimental": 2242,
      "tragic": 2243,
      "bene": 2244,
      "cele": 2245,
      "lar": 2246,
      "wed": 2247,
      "##iet": 2248,
      "##iving": 2249,
      "##ted": 2250,
      "##by": 2251,
      "rev": 2252,
      "##ills": 2253,
      "##ecess": 2254,
      "heard": 2255,
      "death": 2256,
      "##umber": 2257,
      "compass": 2258,
      "respect": 2259,
      "offer": 2260,
      "remorse": 2261,
      "mostly": 2262,
      "general": 2263,
      "recently": 2264,
      "##head": 2265,
      "community": 2266,
      "questions": 2267,
      "negative": 2268,
      "doubtful": 2269,
      "tears": 2270,
      "several": 2271,
      "voice": 2272,
      "suspicious": 2273,
      "gave": 2274,
      "hang": 2275,
      "lad": 2276,
      "line": 2277,
      "##hood": 2278,
      "##bs": 2279,
      "##ze": 2280,
      "##my": 2281,
      "##ines": 2282,
      "##erc": 2283,
      "##itude": 2284,
      "lie": 2285,
      "##aces": 2286,
      "worse": 2287,
      "##ards": 2288,
      "themselves": 2289,
      "readers": 2290,
      "diffic": 2291,
      "finished": 2292,
      "attempt": 2293,
      "pressure": 2294,
      "boyfriend": 2295,
      "keen": 2296,
      "possibly": 2297,
      "quickly": 2298,
      "delighted": 2299,
      "victim": 2300,
      "cond": 2301,
      "case": 2302,
      "hit": 2303,
      "la": 2304,
      "lay": 2305,
      "says": 2306,
      "##ding": 2307,
      "##und": 2308,
      "##uce": 2309,
      "##ins": 2310,
      "##iding": 2311,
      "##verse": 2312,
      "prom": 2313,
      "##ilar": 2314,
      "black": 2315,
      "keeping": 2316,
      "playful": 2317,
      "build": 2318,
      "spending": 2319,
      "neglect": 2320,
      "pictures": 2321,
      "issues": 2322,
      "##usioned": 2323,
      "decision": 2324,
      "fairly": 2325,
      "soul": 2326,
      "celebr": 2327,
      "auth": 2328,
      "cy": 2329,
      "ep": 2330,
      "##ience": 2331,
      "##raged": 2332,
      "##room": 2333,
      "##anna": 2334,
      "##ott": 2335,
      "star": 2336,
      "stories": 2337,
      "##illusioned": 2338,
      "dog": 2339,
      "##ames": 2340,
      "strength": 2341,
      "disillusioned": 2342,
      "everyday": 2343,
      "process": 2344,
      "acr": 2345,
      "personally": 2346,
      "looked": 2347,
      "##ledge": 2348,
      "allowed": 2349,
      "crying": 2350,
      "apart": 2351,
      "respons": 2352,
      "idiotic": 2353,
      "glamorous": 2354,
      "cent": 2355,
      "ev": 2356,
      "non": 2357,
      "rain": 2358,
      "##ale": 2359,
      "##gan": 2360,
      "##atur": 2361,
      "beha": 2362,
      "form": 2363,
      "##ther": 2364,
      "anyway": 2365,
      "wrote": 2366,
      "helping": 2367,
      "##where": 2368,
      "wondering": 2369,
      "incl": 2370,
      "sleeping": 2371,
      "achie": 2372,
      "##aughter": 2373,
      "presence": 2374,
      "appreciate": 2375,
      "certainly": 2376,
      "listening": 2377,
      "photos": 2378,
      "physically": 2379,
      "##ney": 2380,
      "avoid": 2381,
      "utterly": 2382,
      "college": 2383,
      "remorseful": 2384,
      "across": 2385,
      "bag": 2386,
      "boun": 2387,
      "cor": 2388,
      "laz": 2389,
      "mist": 2390,
      "##iety": 2391,
      "##ts": 2392,
      "##dle": 2393,
      "##que": 2394,
      "lif": 2395,
      "##irc": 2396,
      "door": 2397,
      "##itten": 2398,
      "weak": 2399,
      "weather": 2400,
      "##ational": 2401,
      "spot": 2402,
      "usual": 2403,
      "gotten": 2404,
      "flow": 2405,
      "decide": 2406,
      "teac": 2407,
      "subject": 2408,
      "choice": 2409,
      "meeting": 2410,
      "busy": 2411,
      "connection": 2412,
      "answer": 2413,
      "public": 2414,
      "protect": 2415,
      "sister": 2416,
      "foot": 2417,
      "favor": 2418,
      "difficult": 2419,
      "circ": 2420,
      "losing": 2421,
      "ra": 2422,
      "wife": 2423,
      "wanna": 2424,
      "##bers": 2425,
      "##py": 2426,
      "##fer": 2427,
      "##elop": 2428,
      "bey": 2429,
      "##oted": 2430,
      "##icked": 2431,
      "notic": 2432,
      "asking": 2433,
      "exist": 2434,
      "training": 2435,
      "area": 2436,
      "##ilities": 2437,
      "evening": 2438,
      "happens": 2439,
      "cloth": 2440,
      "yourself": 2441,
      "betr": 2442,
      "lots": 2443,
      "desper": 2444,
      "blogging": 2445,
      "sadness": 2446,
      "develop": 2447,
      "emotionally": 2448,
      "reasons": 2449,
      "inform": 2450,
      "visit": 2451,
      "breath": 2452,
      "huge": 2453,
      "motiv": 2454,
      "hostile": 2455,
      "cop": 2456,
      "gon": 2457,
      "number": 2458,
      "sil": 2459,
      "sign": 2460,
      "title": 2461,
      "feed": 2462,
      "##ats": 2463,
      "##lly": 2464,
      "stre": 2465,
      "imm": 2466,
      "##acking": 2467,
      "##acious": 2468,
      "comment": 2469,
      "trav": 2470,
      "dem": 2471,
      "theyre": 2472,
      "couldn": 2473,
      "quiet": 2474,
      "managed": 2475,
      "comput": 2476,
      "cover": 2477,
      "drink": 2478,
      "finding": 2479,
      "cross": 2480,
      "ended": 2481,
      "passed": 2482,
      "discuss": 2483,
      "enjoyed": 2484,
      "fuck": 2485,
      "sociable": 2486,
      "grouchy": 2487,
      "picture": 2488,
      "return": 2489,
      "challen": 2490,
      "##hibited": 2491,
      "beyond": 2492,
      "ahead": 2493,
      "bal": 2494,
      "catch": 2495,
      "dan": 2496,
      "fol": 2497,
      "##to": 2498,
      "##uin": 2499,
      "##fit": 2500,
      "##ination": 2501,
      "##itive": 2502,
      "##isive": 2503,
      "inhibited": 2504,
      "img": 2505,
      "##idence": 2506,
      "##acent": 2507,
      "sharing": 2508,
      "##ecisive": 2509,
      "exerc": 2510,
      "##ages": 2511,
      "stra": 2512,
      "happiness": 2513,
      "##ogn": 2514,
      "belong": 2515,
      "perform": 2516,
      "teen": 2517,
      "hateful": 2518,
      "complete": 2519,
      "assa": 2520,
      "anxiety": 2521,
      "indecisive": 2522,
      "guilt": 2523,
      "ideas": 2524,
      "fully": 2525,
      "simple": 2526,
      "complacent": 2527,
      "problem": 2528,
      "educ": 2529,
      "purp": 2530,
      "character": 2531,
      "physical": 2532,
      "create": 2533,
      "progress": 2534,
      "describe": 2535,
      "entertained": 2536,
      "sarc": 2537,
      "clothes": 2538,
      "gonna": 2539,
      "aud": 2540,
      "five": 2541,
      "lord": 2542,
      "tast": 2543,
      "##ef": 2544,
      "##ued": 2545,
      "##gin": 2546,
      "##iny": 2547,
      "##ert": 2548,
      "impr": 2549,
      "##ides": 2550,
      "##anted": 2551,
      "##ulf": 2552,
      "sund": 2553,
      "##tern": 2554,
      "knowledge": 2555,
      "##ists": 2556,
      "env": 2557,
      "##stem": 2558,
      "##raught": 2559,
      "grace": 2560,
      "brought": 2561,
      "smell": 2562,
      "letting": 2563,
      "distraught": 2564,
      "posting": 2565,
      "system": 2566,
      "obvious": 2567,
      "happening": 2568,
      "choose": 2569,
      "paper": 2570,
      "songs": 2571,
      "results": 2572,
      "pregnant": 2573,
      "film": 2574,
      "company": 2575,
      "draw": 2576,
      "daily": 2577,
      "dinner": 2578,
      "lazy": 2579,
      "computer": 2580,
      "cult": 2581,
      "fan": 2582,
      "mod": 2583,
      "squ": 2584,
      "tar": 2585,
      "test": 2586,
      "##ived": 2587,
      "##ians": 2588,
      "##ific": 2589,
      "##par": 2590,
      "##ingly": 2591,
      "##edom": 2592,
      "##ows": 2593,
      "ste": 2594,
      "onto": 2595,
      "##ants": 2596,
      "whats": 2597,
      "dead": 2598,
      "spr": 2599,
      "himself": 2600,
      "shouldnt": 2601,
      "terribly": 2602,
      "teach": 2603,
      "text": 2604,
      "##ivity": 2605,
      "incre": 2606,
      "earl": 2607,
      "okay": 2608,
      "sett": 2609,
      "##pression": 2610,
      "memories": 2611,
      "entir": 2612,
      "color": 2613,
      "further": 2614,
      "slowly": 2615,
      "##ield": 2616,
      "straight": 2617,
      "die": 2618,
      "daughter": 2619,
      "gri": 2620,
      "jud": 2621,
      "kick": 2622,
      "odd": 2623,
      "path": 2624,
      "search": 2625,
      "##dy": 2626,
      "##uz": 2627,
      "##unt": 2628,
      "feet": 2629,
      "##ences": 2630,
      "whom": 2631,
      "lim": 2632,
      "stuck": 2633,
      "##ama": 2634,
      "heav": 2635,
      "chest": 2636,
      "unf": 2637,
      "expected": 2638,
      "##unk": 2639,
      "bitch": 2640,
      "seemed": 2641,
      "gracious": 2642,
      "written": 2643,
      "talked": 2644,
      "scream": 2645,
      "appear": 2646,
      "flo": 2647,
      "posts": 2648,
      "posted": 2649,
      "discover": 2650,
      "crap": 2651,
      "older": 2652,
      "devoted": 2653,
      "earth": 2654,
      "difference": 2655,
      "media": 2656,
      "entire": 2657,
      "issue": 2658,
      "program": 2659,
      "conversation": 2660,
      "stopped": 2661,
      "proper": 2662,
      "compassionate": 2663,
      "street": 2664,
      "assaulted": 2665,
      "target": 2666,
      "entirely": 2667,
      "cust": 2668,
      "fulf": 2669,
      "ment": 2670,
      "mix": 2671,
      "nature": 2672,
      "roll": 2673,
      "##ially": 2674,
      "##ift": 2675,
      "##ai": 2676,
      "##go": 2677,
      "##gant": 2678,
      "lik": 2679,
      "##ality": 2680,
      "meant": 2681,
      "ability": 2682,
      "shamed": 2683,
      "comb": 2684,
      "lol": 2685,
      "blood": 2686,
      "##igned": 2687,
      "rele": 2688,
      "heartless": 2689,
      "fault": 2690,
      "jolly": 2691,
      "##ivid": 2692,
      "recogn": 2693,
      "enjoying": 2694,
      "playing": 2695,
      "charming": 2696,
      "series": 2697,
      "secret": 2698,
      "somewhere": 2699,
      "beauty": 2700,
      "freedom": 2701,
      "shoes": 2702,
      "holiday": 2703,
      "similar": 2704,
      "information": 2705,
      "sarcastic": 2706,
      "city": 2707,
      "cap": 2708,
      "hist": 2709,
      "hide": 2710,
      "natur": 2711,
      "sand": 2712,
      "serv": 2713,
      "takes": 2714,
      "vers": 2715,
      "##ified": 2716,
      "##ns": 2717,
      "##ym": 2718,
      "##ule": 2719,
      "##work": 2720,
      "##els": 2721,
      "##onment": 2722,
      "##ution": 2723,
      "itself": 2724,
      "immed": 2725,
      "notice": 2726,
      "shake": 2727,
      "##thy": 2728,
      "##ries": 2729,
      "##ands": 2730,
      "afterno": 2731,
      "weepy": 2732,
      "facebook": 2733,
      "opin": 2734,
      "eye": 2735,
      "boys": 2736,
      "situations": 2737,
      "relationships": 2738,
      "apolog": 2739,
      "struggle": 2740,
      "interesting": 2741,
      "figure": 2742,
      "deserve": 2743,
      "##ecessary": 2744,
      "betrayed": 2745,
      "earlier": 2746,
      "den": 2747,
      "dance": 2748,
      "fat": 2749,
      "fans": 2750,
      "fix": 2751,
      "gut": 2752,
      "mass": 2753,
      "mental": 2754,
      "mouth": 2755,
      "port": 2756,
      "silly": 2757,
      "tv": 2758,
      "vide": 2759,
      "##ob": 2760,
      "##iver": 2761,
      "##te": 2762,
      "##ruct": 2763,
      "##xious": 2764,
      "##ering": 2765,
      "lively": 2766,
      "##icking": 2767,
      "##acing": 2768,
      "unable": 2769,
      "tra": 2770,
      "##elling": 2771,
      "strang": 2772,
      "awes": 2773,
      "##ogra": 2774,
      "works": 2775,
      "afterward": 2776,
      "##athy": 2777,
      "throughout": 2778,
      "drop": 2779,
      "badly": 2780,
      "career": 2781,
      "##others": 2782,
      "regard": 2783,
      "understanding": 2784,
      "obno": 2785,
      "specific": 2786,
      "members": 2787,
      "dreams": 2788,
      "business": 2789,
      "struggling": 2790,
      "drive": 2791,
      "middle": 2792,
      "becoming": 2793,
      "elegant": 2794,
      "review": 2795,
      "author": 2796,
      "favorite": 2797,
      "purpose": 2798,
      "custom": 2799,
      "immedi": 2800,
      "obnoxious": 2801,
      "bott": 2802,
      "cat": 2803,
      "date": 2804,
      "kill": 2805,
      "psy": 2806,
      "tas": 2807,
      "ye": 2808,
      "##iod": 2809,
      "##tight": 2810,
      "##res": 2811,
      "##round": 2812,
      "##ator": 2813,
      "##ening": 2814,
      "##itter": 2815,
      "white": 2816,
      "soft": 2817,
      "isn": 2818,
      "sugg": 2819,
      "organ": 2820,
      "uptight": 2821,
      "##aging": 2822,
      "##unned": 2823,
      "blue": 2824,
      "##andom": 2825,
      "helped": 2826,
      "office": 2827,
      "contrib": 2828,
      "period": 2829,
      "confidence": 2830,
      "gives": 2831,
      "leaves": 2832,
      "surround": 2833,
      "individ": 2834,
      "minute": 2835,
      "society": 2836,
      "falling": 2837,
      "road": 2838,
      "changes": 2839,
      "experienced": 2840,
      "nearly": 2841,
      "birthday": 2842,
      "epis": 2843,
      "sunday": 2844,
      "likely": 2845,
      "afternoon": 2846,
      "suggest": 2847,
      "bes": 2848,
      "bored": 2849,
      "dest": 2850,
      "filled": 2851,
      "ice": 2852,
      "jump": 2853,
      "pen": 2854,
      "six": 2855,
      "##nal": 2856,
      "##ugh": 2857,
      "##uff": 2858,
      "##jor": 2859,
      "haven": 2860,
      "stri": 2861,
      "requ": 2862,
      "##ential": 2863,
      "##alled": 2864,
      "##acy": 2865,
      "above": 2866,
      "doct": 2867,
      "hearing": 2868,
      "choc": 2869,
      "##iling": 2870,
      "##ume": 2871,
      "bless": 2872,
      "blamed": 2873,
      "aff": 2874,
      "workout": 2875,
      "scre": 2876,
      "genuin": 2877,
      "parent": 2878,
      "harder": 2879,
      "calling": 2880,
      "regular": 2881,
      "turning": 2882,
      "invest": 2883,
      "musc": 2884,
      "reflect": 2885,
      "treated": 2886,
      "projects": 2887,
      "changed": 2888,
      "currently": 2889,
      "practice": 2890,
      "bouncy": 2891,
      "noticed": 2892,
      "challenge": 2893,
      "exercise": 2894,
      "envir": 2895,
      "increas": 2896,
      "mentally": 2897,
      "awesome": 2898,
      "genuinely": 2899,
      "ball": 2900,
      "cam": 2901,
      "card": 2902,
      "gig": 2903,
      "lab": 2904,
      "mum": 2905,
      "ran": 2906,
      "rout": 2907,
      "sal": 2908,
      "sore": 2909,
      "##oes": 2910,
      "##ik": 2911,
      "##ton": 2912,
      "##rr": 2913,
      "##gle": 2914,
      "##mon": 2915,
      "##ina": 2916,
      "haha": 2917,
      "lived": 2918,
      "stunned": 2919,
      "##aced": 2920,
      "aband": 2921,
      "shop": 2922,
      "alar": 2923,
      "pride": 2924,
      "check": 2925,
      "unk": 2926,
      "unless": 2927,
      "major": 2928,
      "outraged": 2929,
      "##ection": 2930,
      "##acks": 2931,
      "aware": 2932,
      "embr": 2933,
      "remain": 2934,
      "hoping": 2935,
      "coff": 2936,
      "appro": 2937,
      "keeps": 2938,
      "##ibility": 2939,
      "girlfriend": 2940,
      "hurts": 2941,
      "headach": 2942,
      "fearless": 2943,
      "meaning": 2944,
      "ache": 2945,
      "commun": 2946,
      "choices": 2947,
      "legs": 2948,
      "following": 2949,
      "growing": 2950,
      "polit": 2951,
      "received": 2952,
      "current": 2953,
      "journey": 2954,
      "neglectful": 2955,
      "cyc": 2956,
      "behavi": 2957,
      "travel": 2958,
      "folks": 2959,
      "taste": 2960,
      "culture": 2961,
      "individual": 2962,
      "environment": 2963,
      "bought": 2964,
      "cos": 2965,
      "cook": 2966,
      "hung": 2967,
      "mas": 2968,
      "mill": 2969,
      "mond": 2970,
      "na": 2971,
      "table": 2972,
      "vib": 2973,
      "##ient": 2974,
      "##ror": 2975,
      "##bing": 2976,
      "##cer": 2977,
      "##wise": 2978,
      "tough": 2979,
      "##oned": 2980,
      "##ancy": 2981,
      "##lex": 2982,
      "##uses": 2983,
      "##eth": 2984,
      "online": 2985,
      "forever": 2986,
      "shut": 2987,
      "shall": 2988,
      "##oop": 2989,
      "friday": 2990,
      "fresh": 2991,
      "knows": 2992,
      "dism": 2993,
      "arent": 2994,
      "overall": 2995,
      "thro": 2996,
      "relig": 2997,
      "brother": 2998,
      "reality": 2999,
      "final": 3000,
      "sweat": 3001,
      "watched": 3002,
      "artic": 3003,
      "involved": 3004,
      "studying": 3005,
      "inspir": 3006,
      "capt": 3007,
      "considerate": 3008,
      "repe": 3009,
      "poor": 3010,
      "sexual": 3011,
      "##ify": 3012,
      "treas": 3013,
      "breathe": 3014,
      "events": 3015,
      "winter": 3016,
      "experiences": 3017,
      "univers": 3018,
      "becomes": 3019,
      "internet": 3020,
      "fingers": 3021,
      "large": 3022,
      "##ograph": 3023,
      "immediately": 3024,
      "psych": 3025,
      "chocol": 3026,
      "fly": 3027,
      "fast": 3028,
      "hug": 3029,
      "nic": 3030,
      "pan": 3031,
      "tad": 3032,
      "tight": 3033,
      "##oad": 3034,
      "##hy": 3035,
      "##lish": 3036,
      "##ball": 3037,
      "##gar": 3038,
      "tool": 3039,
      "##arily": 3040,
      "##ushing": 3041,
      "stick": 3042,
      "repl": 3043,
      "repressed": 3044,
      "##ury": 3045,
      "##ously": 3046,
      "goal": 3047,
      "une": 3048,
      "##itted": 3049,
      "blah": 3050,
      "previous": 3051,
      "prefer": 3052,
      "intr": 3053,
      "grad": 3054,
      "grab": 3055,
      "##ement": 3056,
      "helps": 3057,
      "save": 3058,
      "contact": 3059,
      "ident": 3060,
      "consum": 3061,
      "married": 3062,
      "obs": 3063,
      "obl": 3064,
      "turned": 3065,
      "perfectly": 3066,
      "##ashion": 3067,
      "products": 3068,
      "key": 3069,
      "staying": 3070,
      "appreciated": 3071,
      "medic": 3072,
      "message": 3073,
      "normally": 3074,
      "purs": 3075,
      "universe": 3076,
      "window": 3077,
      "occas": 3078,
      "local": 3079,
      "profession": 3080,
      "miles": 3081,
      "wedding": 3082,
      "lady": 3083,
      "graceful": 3084,
      "service": 3085,
      "coffee": 3086,
      "cast": 3087,
      "caught": 3088,
      "eq": 3089,
      "fill": 3090,
      "field": 3091,
      "hers": 3092,
      "lang": 3093,
      "link": 3094,
      "liter": 3095,
      "mer": 3096,
      "nur": 3097,
      "round": 3098,
      "var": 3099,
      "yog": 3100,
      "##ler": 3101,
      "##dom": 3102,
      "##ma": 3103,
      "bear": 3104,
      "lips": 3105,
      "##icip": 3106,
      "##idays": 3107,
      "among": 3108,
      "anim": 3109,
      "##oooo": 3110,
      "heat": 3111,
      "alive": 3112,
      "##ceed": 3113,
      "weve": 3114,
      "##ected": 3115,
      "depression": 3116,
      "anybody": 3117,
      "spite": 3118,
      "agree": 3119,
      "awake": 3120,
      "manage": 3121,
      "partner": 3122,
      "otherwise": 3123,
      "died": 3124,
      "brown": 3125,
      "broken": 3126,
      "##ips": 3127,
      "design": 3128,
      "moved": 3129,
      "friendship": 3130,
      "hopefully": 3131,
      "tech": 3132,
      "handle": 3133,
      "attr": 3134,
      "esc": 3135,
      "recip": 3136,
      "energ": 3137,
      "satur": 3138,
      "artist": 3139,
      "depth": 3140,
      "standing": 3141,
      "edge": 3142,
      "eventually": 3143,
      "movies": 3144,
      "based": 3145,
      "basically": 3146,
      "created": 3147,
      "furious": 3148,
      "pregnancy": 3149,
      "anticip": 3150,
      "direction": 3151,
      "effects": 3152,
      "includ": 3153,
      "audience": 3154,
      "episode": 3155,
      "monday": 3156,
      "langu": 3157,
      "bright": 3158,
      "bike": 3159,
      "cup": 3160,
      "dread": 3161,
      "fashion": 3162,
      "gard": 3163,
      "games": 3164,
      "law": 3165,
      "lunch": 3166,
      "pin": 3167,
      "rock": 3168,
      "sem": 3169,
      "sky": 3170,
      "size": 3171,
      "tree": 3172,
      "ul": 3173,
      "vac": 3174,
      "##old": 3175,
      "##iant": 3176,
      "##port": 3177,
      "##for": 3178,
      "##inct": 3179,
      "town": 3180,
      "inj": 3181,
      "##iculous": 3182,
      "##vern": 3183,
      "##osp": 3184,
      "ate": 3185,
      "height": 3186,
      "neur": 3187,
      "alb": 3188,
      "became": 3189,
      "govern": 3190,
      "chick": 3191,
      "mag": 3192,
      "train": 3193,
      "##ests": 3194,
      "willing": 3195,
      "arm": 3196,
      "novel": 3197,
      "writ": 3198,
      "club": 3199,
      "##action": 3200,
      "resigned": 3201,
      "offic": 3202,
      "shouldn": 3203,
      "activ": 3204,
      "lets": 3205,
      "separ": 3206,
      "glass": 3207,
      "famili": 3208,
      "##comm": 3209,
      "blogs": 3210,
      "carry": 3211,
      "record": 3212,
      "stronger": 3213,
      "sorrow": 3214,
      "skills": 3215,
      "total": 3216,
      "luck": 3217,
      "refer": 3218,
      "memory": 3219,
      "swim": 3220,
      "pair": 3221,
      "infl": 3222,
      "photo": 3223,
      "shopping": 3224,
      "interested": 3225,
      "truthful": 3226,
      "idiot": 3227,
      "temper": 3228,
      "forgive": 3229,
      "decisions": 3230,
      "provide": 3231,
      "encour": 3232,
      "achieve": 3233,
      "teacher": 3234,
      "obviously": 3235,
      "history": 3236,
      "video": 3237,
      "afterwards": 3238,
      "yeah": 3239,
      "chocolate": 3240,
      "equally": 3241,
      "yoga": 3242,
      "saturday": 3243,
      "familiar": 3244,
      "aut": 3245,
      "born": 3246,
      "bunch": 3247,
      "dut": 3248,
      "dun": 3249,
      "est": 3250,
      "equ": 3251,
      "gain": 3252,
      "jes": 3253,
      "mir": 3254,
      "none": 3255,
      "ori": 3256,
      "pound": 3257,
      "page": 3258,
      "ris": 3259,
      "sel": 3260,
      "##iff": 3261,
      "##ses": 3262,
      "##light": 3263,
      "##bo": 3264,
      "##ux": 3265,
      "##aa": 3266,
      "##fast": 3267,
      "##gue": 3268,
      "##giving": 3269,
      "##ining": 3270,
      "fem": 3271,
      "##ouble": 3272,
      "##lend": 3273,
      "##using": 3274,
      "whine": 3275,
      "item": 3276,
      "stage": 3277,
      "image": 3278,
      "##enty": 3279,
      "shame": 3280,
      "shared": 3281,
      "exper": 3282,
      "loves": 3283,
      "##iled": 3284,
      "enth": 3285,
      "deb": 3286,
      "deg": 3287,
      "anywhere": 3288,
      "##itement": 3289,
      "clim": 3290,
      "diet": 3291,
      "brush": 3292,
      "smo": 3293,
      "letter": 3294,
      "scene": 3295,
      "##ensely": 3296,
      "flaw": 3297,
      "distance": 3298,
      "passion": 3299,
      "excitement": 3300,
      "sched": 3301,
      "overwhelming": 3302,
      "details": 3303,
      "position": 3304,
      "socially": 3305,
      "study": 3306,
      "annoying": 3307,
      "burden": 3308,
      "complain": 3309,
      "constant": 3310,
      "report": 3311,
      "box": 3312,
      "dealing": 3313,
      "breakfast": 3314,
      "focused": 3315,
      "sounds": 3316,
      "pieces": 3317,
      "accident": 3318,
      "english": 3319,
      "sensitive": 3320,
      "holidays": 3321,
      "clearly": 3322,
      "journal": 3323,
      "ridiculous": 3324,
      "reaction": 3325,
      "building": 3326,
      "beside": 3327,
      "muscles": 3328,
      "alarmed": 3329,
      "embrace": 3330,
      "oblig": 3331,
      "language": 3332,
      "jesus": 3333,
      "bird": 3334,
      "core": 3335,
      "cost": 3336,
      "cream": 3337,
      "dar": 3338,
      "dig": 3339,
      "gym": 3340,
      "hat": 3341,
      "kitch": 3342,
      "ly": 3343,
      "mult": 3344,
      "match": 3345,
      "mater": 3346,
      "master": 3347,
      "rar": 3348,
      "ride": 3349,
      "random": 3350,
      "vent": 3351,
      "##ipping": 3352,
      "##ta": 3353,
      "##ress": 3354,
      "##vated": 3355,
      "##por": 3356,
      "##gra": 3357,
      "##eness": 3358,
      "##ores": 3359,
      "##orthy": 3360,
      "##ester": 3361,
      "##onic": 3362,
      "##onse": 3363,
      "##anci": 3364,
      "##reg": 3365,
      "##ley": 3366,
      "stood": 3367,
      "repr": 3368,
      "recomm": 3369,
      "##aching": 3370,
      "##ionally": 3371,
      "##osen": 3372,
      "asleep": 3373,
      "##ched": 3374,
      "neigh": 3375,
      "neither": 3376,
      "unn": 3377,
      "somebody": 3378,
      "timid": 3379,
      "dear": 3380,
      "wouldn": 3381,
      "aggra": 3382,
      "##acked": 3383,
      "nobody": 3384,
      "plus": 3385,
      "places": 3386,
      "saf": 3387,
      "action": 3388,
      "perspect": 3389,
      "lessons": 3390,
      "crow": 3391,
      "tells": 3392,
      "financi": 3393,
      "painting": 3394,
      "conscious": 3395,
      "shows": 3396,
      "suck": 3397,
      "mark": 3398,
      "common": 3399,
      "depend": 3400,
      "brand": 3401,
      "continued": 3402,
      "highly": 3403,
      "considering": 3404,
      "therap": 3405,
      "photograph": 3406,
      "holding": 3407,
      "cheer": 3408,
      "##rics": 3409,
      "treatment": 3410,
      "north": 3411,
      "concerned": 3412,
      "accomplish": 3413,
      "accomplished": 3414,
      "properly": 3415,
      "version": 3416,
      "strangely": 3417,
      "university": 3418,
      "herself": 3419,
      "kitchen": 3420,
      "rarely": 3421,
      "neighb": 3422,
      "bom": 3423,
      "bath": 3424,
      "batt": 3425,
      "ease": 3426,
      "gained": 3427,
      "mount": 3428,
      "nause": 3429,
      "neck": 3430,
      "pace": 3431,
      "pati": 3432,
      "rap": 3433,
      "send": 3434,
      "site": 3435,
      "till": 3436,
      "tiny": 3437,
      "vol": 3438,
      "wood": 3439,
      "wimp": 3440,
      "##tim": 3441,
      "##sing": 3442,
      "##back": 3443,
      "##uit": 3444,
      "##ube": 3445,
      "##mark": 3446,
      "thus": 3447,
      "##inge": 3448,
      "##ern": 3449,
      "##ese": 3450,
      "##ison": 3451,
      "hab": 3452,
      "##entr": 3453,
      "note": 3454,
      "aspect": 3455,
      "##ires": 3456,
      "doll": 3457,
      "altern": 3458,
      "ord": 3459,
      "pred": 3460,
      "worst": 3461,
      "chair": 3462,
      "chosen": 3463,
      "hadnt": 3464,
      "peoples": 3465,
      "thinks": 3466,
      "overly": 3467,
      "grat": 3468,
      "writer": 3469,
      "held": 3470,
      "research": 3471,
      "adult": 3472,
      "reader": 3473,
      "actions": 3474,
      "actual": 3475,
      "##izing": 3476,
      "realise": 3477,
      "appalled": 3478,
      "drin": 3479,
      "hearts": 3480,
      "terms": 3481,
      "cred": 3482,
      "flash": 3483,
      "##ploy": 3484,
      "childhood": 3485,
      "##iction": 3486,
      "indul": 3487,
      "frustration": 3488,
      "babies": 3489,
      "planning": 3490,
      "allowing": 3491,
      "colour": 3492,
      "concentr": 3493,
      "speaking": 3494,
      "response": 3495,
      "topic": 3496,
      "failure": 3497,
      "barely": 3498,
      "mentioned": 3499,
      "fighting": 3500,
      "conversations": 3501,
      "maintain": 3502,
      "thanksgiving": 3503,
      "radio": 3504,
      "mistake": 3505,
      "lifest": 3506,
      "balance": 3507,
      "spring": 3508,
      "heavy": 3509,
      "fulfill": 3510,
      "bottom": 3511,
      "dismayed": 3512,
      "throat": 3513,
      "vacation": 3514,
      "neurotic": 3515,
      "ben": 3516,
      "camp": 3517,
      "gt": 3518,
      "goo": 3519,
      "hy": 3520,
      "land": 3521,
      "mi": 3522,
      "nut": 3523,
      "oil": 3524,
      "pat": 3525,
      "sle": 3526,
      "wound": 3527,
      "wine": 3528,
      "waking": 3529,
      "##ners": 3530,
      "##ster": 3531,
      "##ram": 3532,
      "##lict": 3533,
      "##een": 3534,
      "##aven": 3535,
      "##wing": 3536,
      "##inary": 3537,
      "##era": 3538,
      "tour": 3539,
      "##ises": 3540,
      "##asy": 3541,
      "##ases": 3542,
      "whose": 3543,
      "##othing": 3544,
      "store": 3545,
      "youve": 3546,
      "shift": 3547,
      "##ches": 3548,
      "doc": 3549,
      "sugar": 3550,
      "hey": 3551,
      "prin": 3552,
      "goals": 3553,
      "upd": 3554,
      "blow": 3555,
      "arri": 3556,
      "intention": 3557,
      "therefore": 3558,
      "starts": 3559,
      "emo": 3560,
      "compet": 3561,
      "parts": 3562,
      "brings": 3563,
      "sea": 3564,
      "dro": 3565,
      "drag": 3566,
      "conflict": 3567,
      "twitter": 3568,
      "##ibilities": 3569,
      "##ugs": 3570,
      "attitude": 3571,
      "craving": 3572,
      "consist": 3573,
      "##ground": 3574,
      "points": 3575,
      "showing": 3576,
      "played": 3577,
      "instantly": 3578,
      "green": 3579,
      "easier": 3580,
      "stayed": 3581,
      "added": 3582,
      "christian": 3583,
      "swear": 3584,
      "younger": 3585,
      "typing": 3586,
      "images": 3587,
      "breathing": 3588,
      "driving": 3589,
      "respond": 3590,
      "pulled": 3591,
      "efforts": 3592,
      "gifts": 3593,
      "potential": 3594,
      "american": 3595,
      "victimized": 3596,
      "apartment": 3597,
      "desperate": 3598,
      "education": 3599,
      "##going": 3600,
      "doctor": 3601,
      "routine": 3602,
      "approach": 3603,
      "headache": 3604,
      "hungry": 3605,
      "professional": 3606,
      "escape": 3607,
      "album": 3608,
      "activities": 3609,
      "whiney": 3610,
      "recommend": 3611,
      "aggravated": 3612,
      "perspective": 3613,
      "crowd": 3614,
      "wimpy": 3615,
      "band": 3616,
      "bud": 3617,
      "dee": 3618,
      "dating": 3619,
      "elect": 3620,
      "fire": 3621,
      "fellow": 3622,
      "gar": 3623,
      "hyp": 3624,
      "hosp": 3625,
      "jul": 3626,
      "lin": 3627,
      "necessary": 3628,
      "sake": 3629,
      "uk": 3630,
      "wild": 3631,
      "##iest": 3632,
      "##ship": 3633,
      "##ru": 3634,
      "##load": 3635,
      "##aim": 3636,
      "##fl": 3637,
      "##zing": 3638,
      "##mar": 3639,
      "##eliness": 3640,
      "##atively": 3641,
      "##ency": 3642,
      "##ars": 3643,
      "beach": 3644,
      "##asm": 3645,
      "init": 3646,
      "lift": 3647,
      "##ett": 3648,
      "##ets": 3649,
      "##icr": 3650,
      "stret": 3651,
      "fore": 3652,
      "##usting": 3653,
      "heaven": 3654,
      "price": 3655,
      "chec": 3656,
      "##ability": 3657,
      "log": 3658,
      "outfit": 3659,
      "areas": 3660,
      "##ilies": 3661,
      "##umst": 3662,
      "dish": 3663,
      "##pted": 3664,
      "needing": 3665,
      "plot": 3666,
      "##actions": 3667,
      "pretend": 3668,
      "scr": 3669,
      "term": 3670,
      "newb": 3671,
      "slut": 3672,
      "ending": 3673,
      "families": 3674,
      "passing": 3675,
      "angered": 3676,
      "morose": 3677,
      "cares": 3678,
      "mission": 3679,
      "hardly": 3680,
      "bookmark": 3681,
      "coun": 3682,
      "gods": 3683,
      "ess": 3684,
      "recover": 3685,
      "shower": 3686,
      "greater": 3687,
      "admired": 3688,
      "marri": 3689,
      "market": 3690,
      "classes": 3691,
      "buying": 3692,
      "creating": 3693,
      "loneliness": 3694,
      "breast": 3695,
      "refr": 3696,
      "caused": 3697,
      "complaining": 3698,
      "freaking": 3699,
      "struggled": 3700,
      "shoot": 3701,
      "relief": 3702,
      "adventure": 3703,
      "##ology": 3704,
      "personality": 3705,
      "warmth": 3706,
      "cleaning": 3707,
      "receive": 3708,
      "laughing": 3709,
      "advice": 3710,
      "walls": 3711,
      "america": 3712,
      "circumst": 3713,
      "improve": 3714,
      "natural": 3715,
      "cycle": 3716,
      "treasured": 3717,
      "literally": 3718,
      "techn": 3719,
      "government": 3720,
      "degree": 3721,
      "repres": 3722,
      "gratitude": 3723,
      "lifestyle": 3724,
      "bond": 3725,
      "bod": 3726,
      "cow": 3727,
      "cards": 3728,
      "gather": 3729,
      "humb": 3730,
      "hiding": 3731,
      "jan": 3732,
      "loud": 3733,
      "mur": 3734,
      "mach": 3735,
      "ner": 3736,
      "nap": 3737,
      "pu": 3738,
      "picked": 3739,
      "pages": 3740,
      "sigh": 3741,
      "tun": 3742,
      "ver": 3743,
      "vir": 3744,
      "vicious": 3745,
      "vote": 3746,
      "wit": 3747,
      "##ior": 3748,
      "##ium": 3749,
      "##nes": 3750,
      "##hh": 3751,
      "##uing": 3752,
      "##cons": 3753,
      "third": 3754,
      "##ndon": 3755,
      "##ision": 3756,
      "##ased": 3757,
      "ine": 3758,
      "##veal": 3759,
      "whil": 3760,
      "##etry": 3761,
      "##ication": 3762,
      "##icket": 3763,
      "stat": 3764,
      "steal": 3765,
      "reveal": 3766,
      "##aly": 3767,
      "fort": 3768,
      "force": 3769,
      "forced": 3770,
      "##ids": 3771,
      "wash": 3772,
      "wasted": 3773,
      "##osh": 3774,
      "##ulation": 3775,
      "shar": 3776,
      "shirt": 3777,
      "shape": 3778,
      "suic": 3779,
      "##ope": 3780,
      "alot": 3781,
      "pra": 3782,
      "pros": 3783,
      "cher": 3784,
      "chose": 3785,
      "chem": 3786,
      "unpr": 3787,
      "tran": 3788,
      "trad": 3789,
      "##olic": 3790,
      "##ction": 3791,
      "splend": 3792,
      "everywhere": 3793,
      "arrived": 3794,
      "grown": 3795,
      "plans": 3796,
      "quality": 3797,
      "email": 3798,
      "compare": 3799,
      "brit": 3800,
      "coz": 3801,
      "talks": 3802,
      "ourselves": 3803,
      "lesson": 3804,
      "dram": 3805,
      "drama": 3806,
      "##ension": 3807,
      "confess": 3808,
      "tea": 3809,
      "##quil": 3810,
      "join": 3811,
      "illness": 3812,
      "couch": 3813,
      "runs": 3814,
      "nights": 3815,
      "extent": 3816,
      "deliver": 3817,
      "assist": 3818,
      "belief": 3819,
      "succeed": 3820,
      "##apped": 3821,
      "marath": 3822,
      "fears": 3823,
      "healing": 3824,
      "unworthy": 3825,
      "ignore": 3826,
      "sympathy": 3827,
      "snow": 3828,
      "freak": 3829,
      "role": 3830,
      "vision": 3831,
      "touched": 3832,
      "trees": 3833,
      "cheated": 3834,
      "spiritual": 3835,
      "views": 3836,
      "exams": 3837,
      "statement": 3838,
      "solution": 3839,
      "answers": 3840,
      "urge": 3841,
      "finger": 3842,
      "closer": 3843,
      "celebrate": 3844,
      "teaching": 3845,
      "desperately": 3846,
      "motivated": 3847,
      "##ginal": 3848,
      "teachers": 3849,
      "screaming": 3850,
      "release": 3851,
      "opinion": 3852,
      "tasks": 3853,
      "increasingly": 3854,
      "camera": 3855,
      "repeat": 3856,
      "gradu": 3857,
      "spiteful": 3858,
      "energized": 3859,
      "anticipation": 3860,
      "garden": 3861,
      "ultim": 3862,
      "writers": 3863,
      "lyrics": 3864,
      "safety": 3865,
      "google": 3866,
      "hospital": 3867,
      "whilst": 3868,
      "ath": 3869,
      "ble": 3870,
      "bow": 3871,
      "bull": 3872,
      "cud": 3873,
      "cree": 3874,
      "corn": 3875,
      "cried": 3876,
      "cuz": 3877,
      "dump": 3878,
      "faster": 3879,
      "gay": 3880,
      "je": 3881,
      "jew": 3882,
      "los": 3883,
      "mr": 3884,
      "mothers": 3885,
      "net": 3886,
      "pity": 3887,
      "pool": 3888,
      "patter": 3889,
      "pics": 3890,
      "rub": 3891,
      "sac": 3892,
      "sam": 3893,
      "sight": 3894,
      "tues": 3895,
      "vag": 3896,
      "wis": 3897,
      "##now": 3898,
      "##ral": 3899,
      "##rop": 3900,
      "##vant": 3901,
      "##bl": 3902,
      "##aff": 3903,
      "##co": 3904,
      "##gers": 3905,
      "##gery": 3906,
      "##just": 3907,
      "##onom": 3908,
      "##itar": 3909,
      "##anced": 3910,
      "##vey": 3911,
      "##usi": 3912,
      "##icated": 3913,
      "meat": 3914,
      "meal": 3915,
      "amb": 3916,
      "##iment": 3917,
      "butter": 3918,
      "aside": 3919,
      "shed": 3920,
      "male": 3921,
      "london": 3922,
      "outgoing": 3923,
      "enraged": 3924,
      "sport": 3925,
      "displ": 3926,
      "blind": 3927,
      "arg": 3928,
      "aren": 3929,
      "makeup": 3930,
      "plant": 3931,
      "quil": 3932,
      "cloud": 3933,
      "closed": 3934,
      "clothing": 3935,
      "##lessly": 3936,
      "compar": 3937,
      "hasnt": 3938,
      "yours": 3939,
      "sav": 3940,
      "access": 3941,
      "partly": 3942,
      "##uccess": 3943,
      "hoped": 3944,
      "##ached": 3945,
      "smiling": 3946,
      "realised": 3947,
      "appar": 3948,
      "below": 3949,
      "crit": 3950,
      "flight": 3951,
      "phil": 3952,
      "paint": 3953,
      "##ivated": 3954,
      "surf": 3955,
      "surgery": 3956,
      "headed": 3957,
      "wave": 3958,
      "admire": 3959,
      "values": 3960,
      "indust": 3961,
      "particip": 3962,
      "sorts": 3963,
      "grew": 3964,
      "##ashes": 3965,
      "unsuccess": 3966,
      "student": 3967,
      "bigger": 3968,
      "unwanted": 3969,
      "tongue": 3970,
      "surprise": 3971,
      "horribly": 3972,
      "lighter": 3973,
      "convince": 3974,
      "frequ": 3975,
      "colors": 3976,
      "sexy": 3977,
      "reminder": 3978,
      "reminded": 3979,
      "##enges": 3980,
      "laund": 3981,
      "example": 3982,
      "forgot": 3983,
      "bringing": 3984,
      "challenges": 3985,
      "prepared": 3986,
      "affectionate": 3987,
      "dogs": 3988,
      "corner": 3989,
      "settle": 3990,
      "floor": 3991,
      "recognize": 3992,
      "blessings": 3993,
      "giggly": 3994,
      "unkind": 3995,
      "behavior": 3996,
      "inspiration": 3997,
      "animals": 3998,
      "influ": 3999,
      "items": 4000,
      "marriage": 4001,
      "splendid": 4002,
      "marathon": 4003,
      "tuesday": 4004,
      "unsuccessful": 4005,
      "aver": 4006,
      "bi": 4007,
      "bon": 4008,
      "ban": 4009,
      "boss": 4010,
      "bank": 4011,
      "cath": 4012,
      "gun": 4013,
      "hitting": 4014,
      "kar": 4015,
      "led": 4016,
      "lying": 4017,
      "mild": 4018,
      "ol": 4019,
      "ought": 4020,
      "pink": 4021,
      "session": 4022,
      "ten": 4023,
      "wid": 4024,
      "wra": 4025,
      "yell": 4026,
      "youth": 4027,
      "##ives": 4028,
      "##ipped": 4029,
      "##time": 4030,
      "##aper": 4031,
      "##ka": 4032,
      "##ker": 4033,
      "##know": 4034,
      "fever": 4035,
      "##inging": 4036,
      "##ndred": 4037,
      "##ony": 4038,
      "##itor": 4039,
      "##itions": 4040,
      "##aries": 4041,
      "beating": 4042,
      "##asing": 4043,
      "##oms": 4044,
      "##rew": 4045,
      "whis": 4046,
      "##key": 4047,
      "##uted": 4048,
      "likes": 4049,
      "soo": 4050,
      "meas": 4051,
      "##imm": 4052,
      "##vert": 4053,
      "button": 4054,
      "abilities": 4055,
      "##ades": 4056,
      "##chool": 4057,
      "##aming": 4058,
      "##tered": 4059,
      "gold": 4060,
      "cancer": 4061,
      "##sequ": 4062,
      "load": 4063,
      "outs": 4064,
      "##oughly": 4065,
      "##umble": 4066,
      "spin": 4067,
      "spread": 4068,
      "disl": 4069,
      "##ption": 4070,
      "granted": 4071,
      "plenty": 4072,
      "quote": 4073,
      "emer": 4074,
      "clar": 4075,
      "manner": 4076,
      "resist": 4077,
      "workers": 4078,
      "active": 4079,
      "hopes": 4080,
      "scen": 4081,
      "scent": 4082,
      "apply": 4083,
      "belly": 4084,
      "drove": 4085,
      "drunk": 4086,
      "homework": 4087,
      "flat": 4088,
      "##ples": 4089,
      "angel": 4090,
      "giant": 4091,
      "begun": 4092,
      "hurting": 4093,
      "##xture": 4094,
      "worthy": 4095,
      "value": 4096,
      "charmed": 4097,
      "##attered": 4098,
      "object": 4099,
      "breaking": 4100,
      "presented": 4101,
      "setting": 4102,
      "disappear": 4103,
      "adding": 4104,
      "refuse": 4105,
      "higher": 4106,
      "member": 4107,
      "explore": 4108,
      "meth": 4109,
      "poetry": 4110,
      "concl": 4111,
      "rob": 4112,
      "incredible": 4113,
      "basis": 4114,
      "suspect": 4115,
      "expectations": 4116,
      "experiencing": 4117,
      "hundred": 4118,
      "hellip": 4119,
      "forgotten": 4120,
      "england": 4121,
      "prayer": 4122,
      "receiving": 4123,
      "powerful": 4124,
      "reached": 4125,
      "encoun": 4126,
      "benefit": 4127,
      "hanging": 4128,
      "achieved": 4129,
      "flowers": 4130,
      "motivation": 4131,
      "teenager": 4132,
      "squee": 4133,
      "##ificant": 4134,
      "discovered": 4135,
      "naturally": 4136,
      "opinions": 4137,
      "abandoned": 4138,
      "million": 4139,
      "flying": 4140,
      "medicine": 4141,
      "recipe": 4142,
      "duty": 4143,
      "enthusi": 4144,
      "schedule": 4145,
      "unnecessary": 4146,
      "mountain": 4147,
      "newborn": 4148,
      "refresh": 4149,
      "circumstances": 4150,
      "suicide": 4151,
      "industry": 4152,
      "laundry": 4153,
      "bree": 4154,
      "base": 4155,
      "bash": 4156,
      "cough": 4157,
      "cand": 4158,
      "cooking": 4159,
      "cash": 4160,
      "der": 4161,
      "dare": 4162,
      "dav": 4163,
      "dign": 4164,
      "fell": 4165,
      "fish": 4166,
      "fund": 4167,
      "facing": 4168,
      "ge": 4169,
      "holl": 4170,
      "ju": 4171,
      "jub": 4172,
      "kat": 4173,
      "lud": 4174,
      "necess": 4175,
      "om": 4176,
      "oce": 4177,
      "pal": 4178,
      "patient": 4179,
      "rise": 4180,
      "sour": 4181,
      "tack": 4182,
      "tang": 4183,
      "wer": 4184,
      "welcome": 4185,
      "##ov": 4186,
      "##oon": 4187,
      "##iation": 4188,
      "##here": 4189,
      "##hile": 4190,
      "##ray": 4191,
      "##eed": 4192,
      "##vol": 4193,
      "##view": 4194,
      "##bur": 4195,
      "##uely": 4196,
      "##uary": 4197,
      "##aur": 4198,
      "##aked": 4199,
      "##gest": 4200,
      "##mates": 4201,
      "##wl": 4202,
      "##wor": 4203,
      "##inated": 4204,
      "thor": 4205,
      "##atoes": 4206,
      "toes": 4207,
      "##isf": 4208,
      "whim": 4209,
      "whos": 4210,
      "##otected": 4211,
      "##otivated": 4212,
      "lil": 4213,
      "lies": 4214,
      "sooo": 4215,
      "##entially": 4216,
      "butt": 4217,
      "##ional": 4218,
      "asso": 4219,
      "##uls": 4220,
      "##ching": 4221,
      "##iring": 4222,
      "##rified": 4223,
      "##terest": 4224,
      "##eech": 4225,
      "alt": 4226,
      "##cend": 4227,
      "cha": 4228,
      "chill": 4229,
      "unm": 4230,
      "magic": 4231,
      "frank": 4232,
      "track": 4233,
      "trouble": 4234,
      "##ortance": 4235,
      "webs": 4236,
      "##ils": 4237,
      "##agement": 4238,
      "peers": 4239,
      "defect": 4240,
      "##ument": 4241,
      "speech": 4242,
      "hero": 4243,
      "blan": 4244,
      "intent": 4245,
      "intended": 4246,
      "grade": 4247,
      "plain": 4248,
      "##anding": 4249,
      "quit": 4250,
      "awfully": 4251,
      "awhile": 4252,
      "##empl": 4253,
      "startled": 4254,
      "background": 4255,
      "relate": 4256,
      "coat": 4257,
      "kinds": 4258,
      "scale": 4259,
      "perman": 4260,
      "##ossible": 4261,
      "impact": 4262,
      "importance": 4263,
      "impossible": 4264,
      "finishing": 4265,
      "phr": 4266,
      "excuse": 4267,
      "exciting": 4268,
      "pains": 4269,
      "pained": 4270,
      "painful": 4271,
      "park": 4272,
      "joke": 4273,
      "recent": 4274,
      "humans": 4275,
      "learnt": 4276,
      "player": 4277,
      "burst": 4278,
      "subst": 4279,
      "ears": 4280,
      "minds": 4281,
      "minor": 4282,
      "creativity": 4283,
      "secure": 4284,
      "holy": 4285,
      "##ailable": 4286,
      "jobs": 4287,
      "possibility": 4288,
      "plane": 4289,
      "##atives": 4290,
      "switch": 4291,
      "entry": 4292,
      "##itional": 4293,
      "groups": 4294,
      "fabric": 4295,
      "option": 4296,
      "opening": 4297,
      "reply": 4298,
      "jealousy": 4299,
      "purch": 4300,
      "entered": 4301,
      "##airs": 4302,
      "sunsh": 4303,
      "pulling": 4304,
      "available": 4305,
      "paying": 4306,
      "returned": 4307,
      "expensive": 4308,
      "prepare": 4309,
      "radiant": 4310,
      "wednes": 4311,
      "responsibility": 4312,
      "mistakes": 4313,
      "football": 4314,
      "cope": 4315,
      "dancing": 4316,
      "performance": 4317,
      "settled": 4318,
      "grief": 4319,
      "judge": 4320,
      "combination": 4321,
      "customers": 4322,
      "political": 4323,
      "vibr": 4324,
      "religious": 4325,
      "article": 4326,
      "introd": 4327,
      "including": 4328,
      "semester": 4329,
      "chicken": 4330,
      "smooth": 4331,
      "flawless": 4332,
      "material": 4333,
      "ordinary": 4334,
      "drinking": 4335,
      "mixture": 4336,
      "##icrous": 4337,
      "slutty": 4338,
      "represent": 4339,
      "puppy": 4340,
      "status": 4341,
      "unprotected": 4342,
      "tranquil": 4343,
      "average": 4344,
      "method": 4345,
      "jubil": 4346,
      "ludicrous": 4347,
      "associ": 4348,
      "sunshine": 4349,
      "wednesday": 4350,
      "aunt": 4351,
      "bat": 4352,
      "bound": 4353,
      "bones": 4354,
      "cig": 4355,
      "dom": 4356,
      "dying": 4357,
      "er": 4358,
      "eight": 4359,
      "fle": 4360,
      "fal": 4361,
      "font": 4362,
      "gear": 4363,
      "hi": 4364,
      "hill": 4365,
      "kicked": 4366,
      "length": 4367,
      "lacking": 4368,
      "mal": 4369,
      "mud": 4370,
      "nast": 4371,
      "nose": 4372,
      "narr": 4373,
      "nail": 4374,
      "pm": 4375,
      "pow": 4376,
      "pack": 4377,
      "pour": 4378,
      "pump": 4379,
      "rely": 4380,
      "rare": 4381,
      "raw": 4382,
      "sell": 4383,
      "sides": 4384,
      "van": 4385,
      "ward": 4386,
      "wise": 4387,
      "##ii": 4388,
      "##iven": 4389,
      "##ique": 4390,
      "##nown": 4391,
      "##sc": 4392,
      "##hol": 4393,
      "##roy": 4394,
      "##ront": 4395,
      "##do": 4396,
      "##ds": 4397,
      "##dam": 4398,
      "##vas": 4399,
      "##ffe": 4400,
      "##follow": 4401,
      "##gen": 4402,
      "##mate": 4403,
      "thick": 4404,
      "##atically": 4405,
      "todd": 4406,
      "##ena": 4407,
      "##ites": 4408,
      "##ann": 4409,
      "##ister": 4410,
      "##areness": 4411,
      "##ashing": 4412,
      "inner": 4413,
      "hall": 4414,
      "storm": 4415,
      "states": 4416,
      "meals": 4417,
      "forth": 4418,
      "##essive": 4419,
      "##imate": 4420,
      "waste": 4421,
      "youd": 4422,
      "##urity": 4423,
      "##ulate": 4424,
      "##ulated": 4425,
      "shot": 4426,
      "shout": 4427,
      "atm": 4428,
      "justice": 4429,
      "##eeee": 4430,
      "##eeks": 4431,
      "alco": 4432,
      "prim": 4433,
      "consequ": 4434,
      "worn": 4435,
      "chines": 4436,
      "unre": 4437,
      "expressed": 4438,
      "exhib": 4439,
      "someones": 4440,
      "outcome": 4441,
      "##str": 4442,
      "spl": 4443,
      "struct": 4444,
      "stranger": 4445,
      "disres": 4446,
      "prevent": 4447,
      "nofollow": 4448,
      "prove": 4449,
      "##igorous": 4450,
      "awareness": 4451,
      "employ": 4452,
      "compared": 4453,
      "guitar": 4454,
      "goods": 4455,
      "related": 4456,
      "shoulder": 4457,
      "contain": 4458,
      "contempl": 4459,
      "acts": 4460,
      "acting": 4461,
      "smoke": 4462,
      "scar": 4463,
      "appl": 4464,
      "appoint": 4465,
      "desk": 4466,
      "mommy": 4467,
      "cris": 4468,
      "cramp": 4469,
      "moon": 4470,
      "moist": 4471,
      "flower": 4472,
      "distinct": 4473,
      "##place": 4474,
      "decl": 4475,
      "bloggers": 4476,
      "supported": 4477,
      "accepting": 4478,
      "remembered": 4479,
      "listened": 4480,
      "puts": 4481,
      "pleasantly": 4482,
      "##icted": 4483,
      "calls": 4484,
      "craft": 4485,
      "conserv": 4486,
      "function": 4487,
      "recall": 4488,
      "understood": 4489,
      "humorous": 4490,
      "##apping": 4491,
      "admitting": 4492,
      "admitted": 4493,
      "opened": 4494,
      "produce": 4495,
      "hole": 4496,
      "##order": 4497,
      "tone": 4498,
      "surprising": 4499,
      "continues": 4500,
      "bedroom": 4501,
      "sympt": 4502,
      "matters": 4503,
      "prior": 4504,
      "infer": 4505,
      "causing": 4506,
      "considered": 4507,
      "complim": 4508,
      "construct": 4509,
      "sooner": 4510,
      "poem": 4511,
      "##phere": 4512,
      "followed": 4513,
      "econom": 4514,
      "handsome": 4515,
      "growth": 4516,
      "unique": 4517,
      "motion": 4518,
      "leaders": 4519,
      "airport": 4520,
      "figured": 4521,
      "expression": 4522,
      "providing": 4523,
      "questioning": 4524,
      "occup": 4525,
      "favour": 4526,
      "grounded": 4527,
      "grandm": 4528,
      "harm": 4529,
      "benevol": 4530,
      "compassion": 4531,
      "condition": 4532,
      "laid": 4533,
      "stars": 4534,
      "responsibilities": 4535,
      "silence": 4536,
      "discussions": 4537,
      "modern": 4538,
      "grie": 4539,
      "kicks": 4540,
      "fulfilled": 4541,
      "traum": 4542,
      "task": 4543,
      "destroy": 4544,
      "screw": 4545,
      "unknown": 4546,
      "majority": 4547,
      "individuals": 4548,
      "vibe": 4549,
      "identify": 4550,
      "pursue": 4551,
      "various": 4552,
      "dunno": 4553,
      "equal": 4554,
      "darling": 4555,
      "financial": 4556,
      "therapy": 4557,
      "photography": 4558,
      "battle": 4559,
      "volunt": 4560,
      "credit": 4561,
      "concentrate": 4562,
      "consistently": 4563,
      "bodies": 4564,
      "pattern": 4565,
      "refreshed": 4566,
      "breeze": 4567,
      "ocean": 4568,
      "thoroughly": 4569,
      "frankly": 4570,
      "website": 4571,
      "defective": 4572,
      "benevolent": 4573,
      "bill": 4574,
      "bun": 4575,
      "bast": 4576,
      "bum": 4577,
      "cd": 4578,
      "cab": 4579,
      "cake": 4580,
      "dry": 4581,
      "eur": 4582,
      "fi": 4583,
      "fiction": 4584,
      "hence": 4585,
      "lap": 4586,
      "mode": 4587,
      "ny": 4588,
      "pit": 4589,
      "pag": 4590,
      "pap": 4591,
      "pushing": 4592,
      "ry": 4593,
      "rac": 4594,
      "range": 4595,
      "tab": 4596,
      "tip": 4597,
      "ticket": 4598,
      "tension": 4599,
      "wet": 4600,
      "wand": 4601,
      "wip": 4602,
      "wishing": 4603,
      "ya": 4604,
      "zone": 4605,
      "##oe": 4606,
      "##ivers": 4607,
      "##sp": 4608,
      "##ring": 4609,
      "##ey": 4610,
      "##ees": 4611,
      "##den": 4612,
      "##ya": 4613,
      "##bre": 4614,
      "##uel": 4615,
      "##uits": 4616,
      "##pet": 4617,
      "##fits": 4618,
      "##gia": 4619,
      "##zzy": 4620,
      "##ellect": 4621,
      "##ators": 4622,
      "tos": 4623,
      "##orant": 4624,
      "##ormed": 4625,
      "##itation": 4626,
      "##arter": 4627,
      "beer": 4628,
      "ingr": 4629,
      "lip": 4630,
      "liber": 4631,
      "libr": 4632,
      "##ette": 4633,
      "##icy": 4634,
      "reaching": 4635,
      "impress": 4636,
      "##idge": 4637,
      "washing": 4638,
      "##osite": 4639,
      "##osphere": 4640,
      "##adow": 4641,
      "##anta": 4642,
      "##antage": 4643,
      "youll": 4644,
      "##urs": 4645,
      "##ural": 4646,
      "##ules": 4647,
      "shell": 4648,
      "##ript": 4649,
      "##pper": 4650,
      "sup": 4651,
      "suit": 4652,
      "##amm": 4653,
      "##oph": 4654,
      "alright": 4655,
      "print": 4656,
      "conven": 4657,
      "concept": 4658,
      "chat": 4659,
      "chap": 4660,
      "cheeks": 4661,
      "canad": 4662,
      "trick": 4663,
      "web": 4664,
      "weigh": 4665,
      "##istry": 4666,
      "##agn": 4667,
      "lean": 4668,
      "##olve": 4669,
      "hadn": 4670,
      "nowhere": 4671,
      "span": 4672,
      "spark": 4673,
      "block": 4674,
      "everybody": 4675,
      "intense": 4676,
      "intensely": 4677,
      "intellect": 4678,
      "seeming": 4679,
      "gross": 4680,
      "happily": 4681,
      "helpful": 4682,
      "clin": 4683,
      "##active": 4684,
      "guests": 4685,
      "adop": 4686,
      "saving": 4687,
      "remove": 4688,
      "##ocr": 4689,
      "brothers": 4690,
      "gotta": 4691,
      "letters": 4692,
      "scary": 4693,
      "script": 4694,
      "##ization": 4695,
      "drugs": 4696,
      "##ception": 4697,
      "perce": 4698,
      "moms": 4699,
      "crush": 4700,
      "flav": 4701,
      "##epend": 4702,
      "decor": 4703,
      "decent": 4704,
      "blogger": 4705,
      "teeth": 4706,
      "twice": 4707,
      "wondered": 4708,
      "remembering": 4709,
      "carried": 4710,
      "pleasure": 4711,
      "sadd": 4712,
      "handed": 4713,
      "attack": 4714,
      "restaur": 4715,
      "heading": 4716,
      "satisf": 4717,
      "interview": 4718,
      "waited": 4719,
      "artists": 4720,
      "classroom": 4721,
      "charity": 4722,
      "subcons": 4723,
      "indeed": 4724,
      "independ": 4725,
      "announ": 4726,
      "instruct": 4727,
      "instinct": 4728,
      "studio": 4729,
      "uncle": 4730,
      "differently": 4731,
      "planet": 4732,
      "movement": 4733,
      "paid": 4734,
      "petrified": 4735,
      "causes": 4736,
      "eaten": 4737,
      "courage": 4738,
      "collection": 4739,
      "speed": 4740,
      "visiting": 4741,
      "seconds": 4742,
      "opposite": 4743,
      "cheap": 4744,
      "interests": 4745,
      "connected": 4746,
      "despair": 4747,
      "unlike": 4748,
      "expecting": 4749,
      "changing": 4750,
      "tempor": 4751,
      "leading": 4752,
      "steps": 4753,
      "companies": 4754,
      "levels": 4755,
      "deserves": 4756,
      "concern": 4757,
      "international": 4758,
      "seasons": 4759,
      "ladies": 4760,
      "centered": 4761,
      "former": 4762,
      "bags": 4763,
      "subjects": 4764,
      "circle": 4765,
      "raising": 4766,
      "development": 4767,
      "silent": 4768,
      "judged": 4769,
      "##uzz": 4770,
      "unfair": 4771,
      "mixed": 4772,
      "capable": 4773,
      "apologize": 4774,
      "regarding": 4775,
      "regardless": 4776,
      "killing": 4777,
      "surrounded": 4778,
      "screen": 4779,
      "regularly": 4780,
      "naked": 4781,
      "religion": 4782,
      "tools": 4783,
      "unex": 4784,
      "obser": 4785,
      "occasionally": 4786,
      "attracted": 4787,
      "luckily": 4788,
      "female": 4789,
      "obligation": 4790,
      "multip": 4791,
      "nauseous": 4792,
      "patients": 4793,
      "habit": 4794,
      "aspects": 4795,
      "predict": 4796,
      "nutr": 4797,
      "update": 4798,
      "initial": 4799,
      "praise": 4800,
      "british": 4801,
      "ultimately": 4802,
      "vaguely": 4803,
      "whisper": 4804,
      "bashful": 4805,
      "unmotivated": 4806,
      "jubilant": 4807,
      "cigar": 4808,
      "nasty": 4809,
      "chinese": 4810,
      "volunte": 4811,
      "subconscious": 4812,
      "ah": 4813,
      "aim": 4814,
      "aint": 4815,
      "alex": 4816,
      "boo": 4817,
      "bri": 4818,
      "bread": 4819,
      "cit": 4820,
      "cous": 4821,
      "cell": 4822,
      "du": 4823,
      "dor": 4824,
      "eth": 4825,
      "etern": 4826,
      "fate": 4827,
      "gas": 4828,
      "gall": 4829,
      "iv": 4830,
      "jer": 4831,
      "jac": 4832,
      "jun": 4833,
      "jap": 4834,
      "junk": 4835,
      "king": 4836,
      "kore": 4837,
      "killed": 4838,
      "lens": 4839,
      "lung": 4840,
      "lashes": 4841,
      "mu": 4842,
      "mere": 4843,
      "mile": 4844,
      "nine": 4845,
      "names": 4846,
      "pac": 4847,
      "pill": 4848,
      "pang": 4849,
      "packing": 4850,
      "pants": 4851,
      "ring": 4852,
      "rough": 4853,
      "roc": 4854,
      "rising": 4855,
      "rule": 4856,
      "rhy": 4857,
      "section": 4858,
      "ty": 4859,
      "tig": 4860,
      "tread": 4861,
      "taught": 4862,
      "ven": 4863,
      "vint": 4864,
      "vigorous": 4865,
      "yar": 4866,
      "##ole": 4867,
      "##ius": 4868,
      "##ios": 4869,
      "##ients": 4870,
      "##nic": 4871,
      "##rain": 4872,
      "##rance": 4873,
      "##ease": 4874,
      "##days": 4875,
      "##yy": 4876,
      "##bel": 4877,
      "##pe": 4878,
      "##care": 4879,
      "##ga": 4880,
      "##ges": 4881,
      "##wal": 4882,
      "##wood": 4883,
      "##wich": 4884,
      "##inist": 4885,
      "thri": 4886,
      "thigh": 4887,
      "fer": 4888,
      "fed": 4889,
      "feature": 4890,
      "##erence": 4891,
      "##eds": 4892,
      "##atures": 4893,
      "toile": 4894,
      "toler": 4895,
      "lic": 4896,
      "lied": 4897,
      "staff": 4898,
      "##alys": 4899,
      "impression": 4900,
      "sold": 4901,
      "##essions": 4902,
      "##acity": 4903,
      "abuse": 4904,
      "##adem": 4905,
      "##advant": 4906,
      "##irm": 4907,
      "##ril": 4908,
      "##aint": 4909,
      "china": 4910,
      "##ateg": 4911,
      "canvas": 4912,
      "loose": 4913,
      "trail": 4914,
      "##agues": 4915,
      "##unately": 4916,
      "##umn": 4917,
      "disor": 4918,
      "disag": 4919,
      "disreg": 4920,
      "disadvant": 4921,
      "blur": 4922,
      "prec": 4923,
      "arr": 4924,
      "army": 4925,
      "intens": 4926,
      "seek": 4927,
      "overcome": 4928,
      "award": 4929,
      "##ogether": 4930,
      "guid": 4931,
      "resour": 4932,
      "adjust": 4933,
      "relatively": 4934,
      "##aker": 4935,
      "shoulders": 4936,
      "##udes": 4937,
      "acqu": 4938,
      "acknow": 4939,
      "academ": 4940,
      "parties": 4941,
      "##uced": 4942,
      "smiled": 4943,
      "score": 4944,
      "sewing": 4945,
      "apple": 4946,
      "perm": 4947,
      "desires": 4948,
      "glimp": 4949,
      "conference": 4950,
      "ends": 4951,
      "flor": 4952,
      "##coming": 4953,
      "acceptance": 4954,
      "wonderfully": 4955,
      "cared": 4956,
      "excell": 4957,
      "surv": 4958,
      "survi": 4959,
      "attending": 4960,
      "attached": 4961,
      "horse": 4962,
      "valid": 4963,
      "elses": 4964,
      "believed": 4965,
      "amazingly": 4966,
      "players": 4967,
      "sucks": 4968,
      "marks": 4969,
      "classic": 4970,
      "realization": 4971,
      "skill": 4972,
      "damage": 4973,
      "grey": 4974,
      "ideal": 4975,
      "serve": 4976,
      "security": 4977,
      "##ashed": 4978,
      "misund": 4979,
      "commit": 4980,
      "depart": 4981,
      "depending": 4982,
      "babys": 4983,
      "##ordin": 4984,
      "extreme": 4985,
      "continuing": 4986,
      "empath": 4987,
      "ignoring": 4988,
      "explaining": 4989,
      "warning": 4990,
      "peter": 4991,
      "caffe": 4992,
      "snap": 4993,
      "options": 4994,
      "violence": 4995,
      "dreaming": 4996,
      "definition": 4997,
      "boost": 4998,
      "smaller": 4999,
      "disgusting": 5000,
      "##ifying": 5001,
      "driven": 5002,
      "private": 5003,
      "reminds": 5004,
      "shock": 5005,
      "despised": 5006,
      "hunt": 5007,
      "accord": 5008,
      "failing": 5009,
      "failed": 5010,
      "motor": 5011,
      "solid": 5012,
      "praying": 5013,
      "laughed": 5014,
      "anti": 5015,
      "films": 5016,
      "advantage": 5017,
      "powerless": 5018,
      "simpl": 5019,
      "concerns": 5020,
      "affected": 5021,
      "fitness": 5022,
      "##aneously": 5023,
      "reactions": 5024,
      "closet": 5025,
      "larger": 5026,
      "laying": 5027,
      "promise": 5028,
      "responsible": 5029,
      "rainy": 5030,
      "protected": 5031,
      "raised": 5032,
      "silently": 5033,
      "immensely": 5034,
      "discussing": 5035,
      "catching": 5036,
      "drawing": 5037,
      "oddly": 5038,
      "unfold": 5039,
      "appearance": 5040,
      "streets": 5041,
      "sandwich": 5042,
      "portray": 5043,
      "customer": 5044,
      "contribute": 5045,
      "doctors": 5046,
      "afford": 5047,
      "traveling": 5048,
      "##ooped": 5049,
      "psycholog": 5050,
      "nicely": 5051,
      "panic": 5052,
      "previously": 5053,
      "merely": 5054,
      "recipes": 5055,
      "injury": 5056,
      "magaz": 5057,
      "carrying": 5058,
      "mirac": 5059,
      "mirror": 5060,
      "original": 5061,
      "pounds": 5062,
      "ridiculously": 5063,
      "accomplishment": 5064,
      "neighbor": 5065,
      "bathroom": 5066,
      "slept": 5067,
      "dropped": 5068,
      "##rupt": 5069,
      "foreign": 5070,
      "heavenly": 5071,
      "checking": 5072,
      "dishes": 5073,
      "machine": 5074,
      "virgin": 5075,
      "witness": 5076,
      "creep": 5077,
      "wisdom": 5078,
      "comparison": 5079,
      "savage": 5080,
      "participate": 5081,
      "conclusion": 5082,
      "werent": 5083,
      "altogether": 5084,
      "blanket": 5085,
      "purchase": 5086,
      "alcohol": 5087,
      "appointment": 5088,
      "crisis": 5089,
      "moistur": 5090,
      "symptoms": 5091,
      "grandmother": 5092,
      "bastard": 5093,
      "library": 5094,
      "seemingly": 5095,
      "restaurant": 5096,
      "unexpected": 5097,
      "citiz": 5098,
      "japan": 5099,
      "rhyth": 5100,
      "vintage": 5101,
      "toilet": 5102,
      "disadvantaged": 5103,
      "misunderst": 5104,
      "austr": 5105,
      "ba": 5106,
      "bf": 5107,
      "bub": 5108,
      "bah": 5109,
      "cart": 5110,
      "coc": 5111,
      "civ": 5112,
      "code": 5113,
      "categ": 5114,
      "dv": 5115,
      "dw": 5116,
      "dre": 5117,
      "double": 5118,
      "fac": 5119,
      "fier": 5120,
      "faces": 5121,
      "fandom": 5122,
      "gid": 5123,
      "heck": 5124,
      "ip": 5125,
      "kicking": 5126,
      "lt": 5127,
      "lu": 5128,
      "lat": 5129,
      "lbs": 5130,
      "mac": 5131,
      "mart": 5132,
      "mich": 5133,
      "nd": 5134,
      "ness": 5135,
      "nails": 5136,
      "ple": 5137,
      "pic": 5138,
      "pub": 5139,
      "picking": 5140,
      "puzz": 5141,
      "rate": 5142,
      "ruin": 5143,
      "san": 5144,
      "sending": 5145,
      "santa": 5146,
      "ted": 5147,
      "tut": 5148,
      "tall": 5149,
      "tag": 5150,
      "tick": 5151,
      "tips": 5152,
      "vill": 5153,
      "vile": 5154,
      "wat": 5155,
      "west": 5156,
      "wide": 5157,
      "wished": 5158,
      "woken": 5159,
      "yay": 5160,
      "yout": 5161,
      "york": 5162,
      "##oz": 5163,
      "##oving": 5164,
      "##obb": 5165,
      "##ials": 5166,
      "##rated": 5167,
      "##list": 5168,
      "##laim": 5169,
      "##ext": 5170,
      "##egr": 5171,
      "##eav": 5172,
      "##dra": 5173,
      "##bie": 5174,
      "##bage": 5175,
      "##uu": 5176,
      "##uate": 5177,
      "##af": 5178,
      "##pan": 5179,
      "##put": 5180,
      "##father": 5181,
      "##gl": 5182,
      "##za": 5183,
      "##zed": 5184,
      "##mill": 5185,
      "##ki": 5186,
      "##kin": 5187,
      "##jo": 5188,
      "##eling": 5189,
      "##inc": 5190,
      "##inent": 5191,
      "threw": 5192,
      "feelin": 5193,
      "##ero": 5194,
      "##oul": 5195,
      "##ana": 5196,
      "##reci": 5197,
      "##usive": 5198,
      "whe": 5199,
      "##uting": 5200,
      "##utions": 5201,
      "liking": 5202,
      "##ica": 5203,
      "##iced": 5204,
      "##icle": 5205,
      "sting": 5206,
      "reward": 5207,
      "##alog": 5208,
      "forum": 5209,
      "wasting": 5210,
      "island": 5211,
      "withdra": 5212,
      "##oses": 5213,
      "shots": 5214,
      "##oof": 5215,
      "##illing": 5216,
      "doors": 5217,
      "##ams": 5218,
      "##ops": 5219,
      "##ophy": 5220,
      "heels": 5221,
      "##eem": 5222,
      "ali": 5223,
      "prayed": 5224,
      "compr": 5225,
      "unus": 5226,
      "unhe": 5227,
      "exch": 5228,
      "max": 5229,
      "magn": 5230,
      "frag": 5231,
      "fruit": 5232,
      "lover": 5233,
      "##agon": 5234,
      "##esting": 5235,
      "lemon": 5236,
      "enem": 5237,
      "##unities": 5238,
      "theyve": 5239,
      "##ummy": 5240,
      "string": 5241,
      "strate": 5242,
      "beings": 5243,
      "bits": 5244,
      "bite": 5245,
      "heroes": 5246,
      "discom": 5247,
      "agre": 5248,
      "aggr": 5249,
      "everytime": 5250,
      "integr": 5251,
      "seeking": 5252,
      "afric": 5253,
      "proc": 5254,
      "plate": 5255,
      "##ourn": 5256,
      "happier": 5257,
      "emails": 5258,
      "clock": 5259,
      "sheer": 5260,
      "complex": 5261,
      "##acting": 5262,
      "advert": 5263,
      "offend": 5264,
      "saved": 5265,
      "context": 5266,
      "rights": 5267,
      "remark": 5268,
      "##odes": 5269,
      "acted": 5270,
      "dizzy": 5271,
      "coach": 5272,
      "talent": 5273,
      "seat": 5274,
      "perf": 5275,
      "perverse": 5276,
      "terror": 5277,
      "crack": 5278,
      "endless": 5279,
      "endeav": 5280,
      "##aph": 5281,
      "famous": 5282,
      "phase": 5283,
      "moral": 5284,
      "moronic": 5285,
      "https": 5286,
      "generation": 5287,
      "joh": 5288,
      "##ival": 5289,
      "surely": 5290,
      "schem": 5291,
      "handled": 5292,
      "begging": 5293,
      "##fection": 5294,
      "sites": 5295,
      "assum": 5296,
      "believing": 5297,
      "curl": 5298,
      "##appreci": 5299,
      "marvel": 5300,
      "obtain": 5301,
      "minim": 5302,
      "sorta": 5303,
      "pressures": 5304,
      "foundation": 5305,
      "creature": 5306,
      "slightest": 5307,
      "unsett": 5308,
      "lower": 5309,
      "presents": 5310,
      "contractions": 5311,
      "calif": 5312,
      "torn": 5313,
      "bothering": 5314,
      "addition": 5315,
      "address": 5316,
      "allows": 5317,
      "pale": 5318,
      "disappointment": 5319,
      "meds": 5320,
      "medical": 5321,
      "lightly": 5322,
      "court": 5323,
      "foods": 5324,
      "boat": 5325,
      "board": 5326,
      "boots": 5327,
      "collect": 5328,
      "sexually": 5329,
      "struggles": 5330,
      "turns": 5331,
      "##bbing": 5332,
      "legit": 5333,
      "skinny": 5334,
      "connections": 5335,
      "##cript": 5336,
      "nostalgia": 5337,
      "spiritually": 5338,
      "sunny": 5339,
      "account": 5340,
      "temple": 5341,
      "tempted": 5342,
      "ordered": 5343,
      "engine": 5344,
      "alongside": 5345,
      "prayers": 5346,
      "midst": 5347,
      "exceptionally": 5348,
      "publishing": 5349,
      "sensation": 5350,
      "opportunities": 5351,
      "director": 5352,
      "cutting": 5353,
      "companion": 5354,
      "advance": 5355,
      "dads": 5356,
      "draft": 5357,
      "potatoes": 5358,
      "sisters": 5359,
      "simult": 5360,
      "expense": 5361,
      "transition": 5362,
      "worrying": 5363,
      "lock": 5364,
      "prepar": 5365,
      "colleagues": 5366,
      "kissing": 5367,
      "affection": 5368,
      "grandfather": 5369,
      "presentation": 5370,
      "harsh": 5371,
      "americans": 5372,
      "closest": 5373,
      "beneath": 5374,
      "offering": 5375,
      "conduct": 5376,
      "center": 5377,
      "lifes": 5378,
      "weakness": 5379,
      "noticing": 5380,
      "copy": 5381,
      "significant": 5382,
      "feeding": 5383,
      "feedback": 5384,
      "crossed": 5385,
      "folk": 5386,
      "limit": 5387,
      "floating": 5388,
      "deny": 5389,
      "strangers": 5390,
      "specifically": 5391,
      "bottle": 5392,
      "require": 5393,
      "parenting": 5394,
      "abandon": 5395,
      "communicate": 5396,
      "politic": 5397,
      "masters": 5398,
      "repeated": 5399,
      "replace": 5400,
      "identity": 5401,
      "nursing": 5402,
      "friendships": 5403,
      "depths": 5404,
      "magical": 5405,
      "glasses": 5406,
      "sorrowful": 5407,
      "swimming": 5408,
      "encourage": 5409,
      "##board": 5410,
      "experiment": 5411,
      "accidentally": 5412,
      "financially": 5413,
      "dollars": 5414,
      "alternative": 5415,
      "colours": 5416,
      "hyper": 5417,
      "competition": 5418,
      "scratch": 5419,
      "humbled": 5420,
      "murder": 5421,
      "inev": 5422,
      "fortunate": 5423,
      "prospect": 5424,
      "chemo": 5425,
      "beliefs": 5426,
      "loser": 5427,
      "sacri": 5428,
      "##ropri": 5429,
      "display": 5430,
      "clouds": 5431,
      "apparently": 5432,
      "philos": 5433,
      "surface": 5434,
      "catholic": 5435,
      "encounter": 5436,
      "squeeze": 5437,
      "david": 5438,
      "dignified": 5439,
      "holly": 5440,
      "phrase": 5441,
      "false": 5442,
      "consequences": 5443,
      "favourite": 5444,
      "paget": 5445,
      "saddened": 5446,
      "nutrition": 5447,
      "cousin": 5448,
      "lungs": 5449,
      "yarn": 5450,
      "disregard": 5451,
      "intensity": 5452,
      "excellent": 5453,
      "magazine": 5454,
      "neighborhood": 5455,
      "austral": 5456,
      "giddy": 5457,
      "youtube": 5458,
      "californ": 5459,
      "bb": 5460,
      "bout": 5461,
      "bell": 5462,
      "bare": 5463,
      "bio": 5464,
      "billy": 5465,
      "dat": 5466,
      "dess": 5467,
      "dust": 5468,
      "dick": 5469,
      "dub": 5470,
      "eld": 5471,
      "fitting": 5472,
      "fits": 5473,
      "foggy": 5474,
      "gh": 5475,
      "hid": 5476,
      "hook": 5477,
      "hating": 5478,
      "hub": 5479,
      "hits": 5480,
      "jon": 5481,
      "jim": 5482,
      "jam": 5483,
      "jack": 5484,
      "ling": 5485,
      "lit": 5486,
      "lend": 5487,
      "lines": 5488,
      "ms": 5489,
      "mc": 5490,
      "muse": 5491,
      "messed": 5492,
      "math": 5493,
      "mike": 5494,
      "nag": 5495,
      "oct": 5496,
      "pt": 5497,
      "px": 5498,
      "ped": 5499,
      "pee": 5500,
      "pil": 5501,
      "pie": 5502,
      "pile": 5503,
      "poc": 5504,
      "rh": 5505,
      "ru": 5506,
      "rat": 5507,
      "row": 5508,
      "rud": 5509,
      "sen": 5510,
      "sir": 5511,
      "sessions": 5512,
      "tel": 5513,
      "tug": 5514,
      "tub": 5515,
      "trem": 5516,
      "tele": 5517,
      "vom": 5518,
      "voc": 5519,
      "wow": 5520,
      "wig": 5521,
      "zero": 5522,
      "##of": 5523,
      "##ox": 5524,
      "##ober": 5525,
      "##ipp": 5526,
      "##iated": 5527,
      "##iked": 5528,
      "##iences": 5529,
      "##nam": 5530,
      "##tw": 5531,
      "##ham": 5532,
      "##ressed": 5533,
      "##ralled": 5534,
      "##lor": 5535,
      "##dling": 5536,
      "##val": 5537,
      "##vation": 5538,
      "##vision": 5539,
      "##yles": 5540,
      "##ba": 5541,
      "##bal": 5542,
      "##bish": 5543,
      "##cel": 5544,
      "##cast": 5545,
      "##fa": 5546,
      "##gent": 5547,
      "##gely": 5548,
      "##zz": 5549,
      "##mber": 5550,
      "##elry": 5551,
      "##ino": 5552,
      "##interest": 5553,
      "thous": 5554,
      "##eding": 5555,
      "##atory": 5556,
      "tow": 5557,
      "##ench": 5558,
      "##itled": 5559,
      "##itary": 5560,
      "##itudes": 5561,
      "##asp": 5562,
      "##omy": 5563,
      "input": 5564,
      "infection": 5565,
      "##vember": 5566,
      "##utter": 5567,
      "##utral": 5568,
      "hah": 5569,
      "##owered": 5570,
      "##etime": 5571,
      "stin": 5572,
      "staring": 5573,
      "stores": 5574,
      "reven": 5575,
      "revel": 5576,
      "##althy": 5577,
      "sole": 5578,
      "amorous": 5579,
      "##imin": 5580,
      "ish": 5581,
      "abit": 5582,
      "notes": 5583,
      "anime": 5584,
      "analy": 5585,
      "asks": 5586,
      "##che": 5587,
      "##amps": 5588,
      "neutral": 5589,
      "orange": 5590,
      "aller": 5591,
      "exh": 5592,
      "exec": 5593,
      "upload": 5594,
      "##abl": 5595,
      "mail": 5596,
      "##ilt": 5597,
      "##elled": 5598,
      "##agers": 5599,
      "ens": 5600,
      "enorm": 5601,
      "envel": 5602,
      "depress": 5603,
      "theyd": 5604,
      "##sty": 5605,
      "##stream": 5606,
      "whoever": 5607,
      "spo": 5608,
      "spoke": 5609,
      "disp": 5610,
      "disaster": 5611,
      "blond": 5612,
      "blame": 5613,
      "bliss": 5614,
      "bloc": 5615,
      "overt": 5616,
      "november": 5617,
      "##ishes": 5618,
      "grin": 5619,
      "groc": 5620,
      "grasp": 5621,
      "##ief": 5622,
      "qual": 5623,
      "wrest": 5624,
      "empt": 5625,
      "clue": 5626,
      "claim": 5627,
      "manager": 5628,
      "guide": 5629,
      "adore": 5630,
      "thrown": 5631,
      "goodness": 5632,
      "offensive": 5633,
      "sale": 5634,
      "partners": 5635,
      "##ucks": 5636,
      "actively": 5637,
      "activity": 5638,
      "diagn": 5639,
      "brill": 5640,
      "##icks": 5641,
      "##azz": 5642,
      "kindness": 5643,
      "science": 5644,
      "scient": 5645,
      "realistic": 5646,
      "appropri": 5647,
      "downright": 5648,
      "desig": 5649,
      "finds": 5650,
      "##anged": 5651,
      "cringe": 5652,
      "mob": 5653,
      "genre": 5654,
      "confront": 5655,
      "flu": 5656,
      "##apore": 5657,
      "dece": 5658,
      "##vention": 5659,
      "##comp": 5660,
      "angu": 5661,
      "twenty": 5662,
      "morally": 5663,
      "##quel": 5664,
      "##ugged": 5665,
      "lists": 5666,
      "firm": 5667,
      "##beat": 5668,
      "paris": 5669,
      "##aunt": 5670,
      "hardc": 5671,
      "childish": 5672,
      "sadly": 5673,
      "irate": 5674,
      "##umbling": 5675,
      "attend": 5676,
      "attacks": 5677,
      "trips": 5678,
      "horror": 5679,
      "incident": 5680,
      "completed": 5681,
      "reck": 5682,
      "assume": 5683,
      "regards": 5684,
      "veins": 5685,
      "guessing": 5686,
      "marke": 5687,
      "##istics": 5688,
      "burn": 5689,
      "burnt": 5690,
      "subs": 5691,
      "realizing": 5692,
      "mindset": 5693,
      "mini": 5694,
      "skirt": 5695,
      "greet": 5696,
      "eyel": 5697,
      "detail": 5698,
      "positively": 5699,
      "##ava": 5700,
      "defend": 5701,
      "committed": 5702,
      "musical": 5703,
      "biggest": 5704,
      "chris": 5705,
      "calories": 5706,
      "wishes": 5707,
      "planned": 5708,
      "roommate": 5709,
      "swall": 5710,
      "explained": 5711,
      "punch": 5712,
      "movements": 5713,
      "##ugging": 5714,
      "paul": 5715,
      "prize": 5716,
      "entries": 5717,
      "info": 5718,
      "apathetic": 5719,
      "april": 5720,
      "absol": 5721,
      "lights": 5722,
      "cafe": 5723,
      "sympath": 5724,
      "standards": 5725,
      "singapore": 5726,
      "reput": 5727,
      "republ": 5728,
      "bold": 5729,
      "suffered": 5730,
      "metaph": 5731,
      "fallen": 5732,
      "visited": 5733,
      "##away": 5734,
      "holds": 5735,
      "##phor": 5736,
      "touching": 5737,
      "##ifting": 5738,
      "imagination": 5739,
      "trend": 5740,
      "romance": 5741,
      "parano": 5742,
      "followers": 5743,
      "sentence": 5744,
      "unfortunately": 5745,
      "hello": 5746,
      "forgiven": 5747,
      "shorts": 5748,
      "engage": 5749,
      "answered": 5750,
      "treats": 5751,
      "cleaned": 5752,
      "focusing": 5753,
      "expressing": 5754,
      "antsy": 5755,
      "stressful": 5756,
      "directly": 5757,
      "directions": 5758,
      "advoc": 5759,
      "soup": 5760,
      "practically": 5761,
      "throwing": 5762,
      "profound": 5763,
      "comforted": 5764,
      "dressing": 5765,
      "dresses": 5766,
      "extraordin": 5767,
      "milk": 5768,
      "reacting": 5769,
      "closure": 5770,
      "largely": 5771,
      "attempting": 5772,
      "boyfriends": 5773,
      "laur": 5774,
      "authors": 5775,
      "responses": 5776,
      "century": 5777,
      "behave": 5778,
      "avoiding": 5779,
      "avoided": 5780,
      "correct": 5781,
      "flowing": 5782,
      "protection": 5783,
      "existence": 5784,
      "betray": 5785,
      "developed": 5786,
      "immature": 5787,
      "belonging": 5788,
      "model": 5789,
      "steve": 5790,
      "stepped": 5791,
      "searching": 5792,
      "capacity": 5793,
      "apologise": 5794,
      "guts": 5795,
      "traffic": 5796,
      "periods": 5797,
      "suggestions": 5798,
      "blessing": 5799,
      "investment": 5800,
      "reflection": 5801,
      "##rrrr": 5802,
      "headaches": 5803,
      "cookies": 5804,
      "inspiring": 5805,
      "capture": 5806,
      "tightly": 5807,
      "grabbed": 5808,
      "occasion": 5809,
      "amongst": 5810,
      "designers": 5811,
      "included": 5812,
      "brighter": 5813,
      "##formed": 5814,
      "officer": 5815,
      "officially": 5816,
      "separate": 5817,
      "temperature": 5818,
      "risk": 5819,
      "risks": 5820,
      "enthralled": 5821,
      "debt": 5822,
      "birds": 5823,
      "venture": 5824,
      "depends": 5825,
      "bomb": 5826,
      "habits": 5827,
      "tourist": 5828,
      "document": 5829,
      "prince": 5830,
      "budget": 5831,
      "deeper": 5832,
      "garbage": 5833,
      "stretch": 5834,
      "checked": 5835,
      "counter": 5836,
      "gathering": 5837,
      "january": 5838,
      "nerves": 5839,
      "washed": 5840,
      "sharp": 5841,
      "cherished": 5842,
      "traditional": 5843,
      "dramatic": 5844,
      "jewelry": 5845,
      "rubbish": 5846,
      "critical": 5847,
      "frequently": 5848,
      "width": 5849,
      "measure": 5850,
      "loads": 5851,
      "dislike": 5852,
      "hundreds": 5853,
      "enthusiasm": 5854,
      "intentions": 5855,
      "substance": 5856,
      "atmosphere": 5857,
      "structure": 5858,
      "surprisingly": 5859,
      "##break": 5860,
      "clinic": 5861,
      "perceive": 5862,
      "satisfaction": 5863,
      "multiple": 5864,
      "lenses": 5865,
      "tiger": 5866,
      "treadmill": 5867,
      "thrift": 5868,
      "disagree": 5869,
      "guidance": 5870,
      "glimpse": 5871,
      "survived": 5872,
      "caffeine": 5873,
      "according": 5874,
      "japanese": 5875,
      "rhythm": 5876,
      "misunderstood": 5877,
      "latest": 5878,
      "tutor": 5879,
      "comprom": 5880,
      "strategy": 5881,
      "discomfort": 5882,
      "aggressive": 5883,
      "african": 5884,
      "scheme": 5885,
      "##appreciated": 5886,
      "simultaneously": 5887,
      "repeatedly": 5888,
      "pagetitle": 5889,
      "california": 5890,
      "hidden": 5891,
      "october": 5892,
      "pocket": 5893,
      "grocery": 5894,
      "republic": 5895,
      "extraordinarily": 5896,
      "aust": 5897,
      "ber": 5898,
      "bore": 5899,
      "baking": 5900,
      "bible": 5901,
      "bands": 5902,
      "ce": 5903,
      "caut": 5904,
      "dy": 5905,
      "ded": 5906,
      "egg": 5907,
      "fas": 5908,
      "fri": 5909,
      "fog": 5910,
      "file": 5911,
      "gam": 5912,
      "gest": 5913,
      "gap": 5914,
      "hind": 5915,
      "hun": 5916,
      "hint": 5917,
      "horm": 5918,
      "hmm": 5919,
      "ic": 5920,
      "jacks": 5921,
      "josh": 5922,
      "kit": 5923,
      "lis": 5924,
      "lore": 5925,
      "lee": 5926,
      "latter": 5927,
      "laughter": 5928,
      "lands": 5929,
      "lux": 5930,
      "mall": 5931,
      "mush": 5932,
      "matt": 5933,
      "mama": 5934,
      "muff": 5935,
      "mourn": 5936,
      "nom": 5937,
      "nud": 5938,
      "named": 5939,
      "national": 5940,
      "ox": 5941,
      "pul": 5942,
      "ppl": 5943,
      "poll": 5944,
      "porn": 5945,
      "pian": 5946,
      "packed": 5947,
      "ren": 5948,
      "rice": 5949,
      "races": 5950,
      "rules": 5951,
      "si": 5952,
      "sab": 5953,
      "sect": 5954,
      "sip": 5955,
      "sib": 5956,
      "sons": 5957,
      "ts": 5958,
      "tin": 5959,
      "ting": 5960,
      "tid": 5961,
      "tied": 5962,
      "twe": 5963,
      "tank": 5964,
      "tuck": 5965,
      "tale": 5966,
      "via": 5967,
      "wore": 5968,
      "wings": 5969,
      "yo": 5970,
      "yall": 5971,
      "zom": 5972,
      "##och": 5973,
      "##iat": 5974,
      "##iance": 5975,
      "##iqu": 5976,
      "##tuce": 5977,
      "##son": 5978,
      "##hu": 5979,
      "##hem": 5980,
      "##ron": 5981,
      "##ration": 5982,
      "##lim": 5983,
      "##lie": 5984,
      "##lies": 5985,
      "##ex": 5986,
      "##dled": 5987,
      "##ban": 5988,
      "##boy": 5989,
      "##uition": 5990,
      "##aid": 5991,
      "##aud": 5992,
      "##pret": 5993,
      "##paper": 5994,
      "##cent": 5995,
      "##cue": 5996,
      "##cumb": 5997,
      "##gie": 5998,
      "##me": 5999,
      "##mp": 6000,
      "##wear": 6001,
      "##ju": 6002,
      "##eli": 6003,
      "fee": 6004,
      "##erous": 6005,
      "##erci": 6006,
      "##eday": 6007,
      "##edly": 6008,
      "##atomy": 6009,
      "theory": 6010,
      "todays": 6011,
      "##enity": 6012,
      "##enced": 6013,
      "##oration": 6014,
      "##orable": 6015,
      "##esth": 6016,
      "##onnect": 6017,
      "##itz": 6018,
      "##itate": 6019,
      "##aning": 6020,
      "##ancing": 6021,
      "##ari": 6022,
      "bew": 6023,
      "myster": 6024,
      "##lement": 6025,
      "whining": 6026,
      "##otyp": 6027,
      "haw": 6028,
      "haul": 6029,
      "itd": 6030,
      "##eting": 6031,
      "##eter": 6032,
      "stim": 6033,
      "stir": 6034,
      "stere": 6035,
      "station": 6036,
      "stare": 6037,
      "stash": 6038,
      "stitch": 6039,
      "sticking": 6040,
      "stairs": 6041,
      "##alf": 6042,
      "##aline": 6043,
      "soc": 6044,
      "soap": 6045,
      "sooooo": 6046,
      "sofa": 6047,
      "##idly": 6048,
      "##idents": 6049,
      "##osis": 6050,
      "##oster": 6051,
      "anatomy": 6052,
      "asian": 6053,
      "##ulting": 6054,
      "##irmed": 6055,
      "someday": 6056,
      "##illa": 6057,
      "##ami": 6058,
      "prote": 6059,
      "conce": 6060,
      "congr": 6061,
      "convey": 6062,
      "worship": 6063,
      "##erson": 6064,
      "knot": 6065,
      "knitting": 6066,
      "chances": 6067,
      "champ": 6068,
      "unt": 6069,
      "unb": 6070,
      "unint": 6071,
      "upl": 6072,
      "upcoming": 6073,
      "frame": 6074,
      "froz": 6075,
      "logic": 6076,
      "lovers": 6077,
      "trusted": 6078,
      "outdo": 6079,
      "##orted": 6080,
      "##ella": 6081,
      "##ago": 6082,
      "##ague": 6083,
      "whatso": 6084,
      "pear": 6085,
      "##une": 6086,
      "##olving": 6087,
      "##umes": 6088,
      "##uments": 6089,
      "##stairs": 6090,
      "sometime": 6091,
      "spect": 6092,
      "spont": 6093,
      "spoken": 6094,
      "stroke": 6095,
      "stroll": 6096,
      "theme": 6097,
      "heres": 6098,
      "disorder": 6099,
      "disease": 6100,
      "ages": 6101,
      "everyones": 6102,
      "argue": 6103,
      "##ptember": 6104,
      "proved": 6105,
      "grass": 6106,
      "plat": 6107,
      "##ander": 6108,
      "que": 6109,
      "queen": 6110,
      "awa": 6111,
      "uses": 6112,
      "emily": 6113,
      "clut": 6114,
      "click": 6115,
      "manif": 6116,
      "comparing": 6117,
      "pretending": 6118,
      "resolut": 6119,
      "rescue": 6120,
      "goodby": 6121,
      "offers": 6122,
      "##uded": 6123,
      "insist": 6124,
      "insult": 6125,
      "insane": 6126,
      "remar": 6127,
      "remot": 6128,
      "remaining": 6129,
      "##ocated": 6130,
      "brows": 6131,
      "broad": 6132,
      "bridge": 6133,
      "smarter": 6134,
      "lettuce": 6135,
      "scan": 6136,
      "scott": 6137,
      "sees": 6138,
      "september": 6139,
      "appeal": 6140,
      "##haha": 6141,
      "drank": 6142,
      "perpet": 6143,
      "perception": 6144,
      "glow": 6145,
      "##anging": 6146,
      "slide": 6147,
      "slip": 6148,
      "sink": 6149,
      "sinking": 6150,
      "##cience": 6151,
      "crunch": 6152,
      "crime": 6153,
      "crashing": 6154,
      "undes": 6155,
      "genu": 6156,
      "confusion": 6157,
      "endure": 6158,
      "fluff": 6159,
      "##pled": 6160,
      "everythings": 6161,
      "passes": 6162,
      "wonders": 6163,
      "twist": 6164,
      "carr": 6165,
      "excl": 6166,
      "disconnect": 6167,
      "jokes": 6168,
      "hardest": 6169,
      "hardship": 6170,
      "illustr": 6171,
      "handful": 6172,
      "attrib": 6173,
      "goddam": 6174,
      "craz": 6175,
      "crawl": 6176,
      "horses": 6177,
      "incor": 6178,
      "income": 6179,
      "extend": 6180,
      "extended": 6181,
      "assess": 6182,
      "assert": 6183,
      "pointless": 6184,
      "restr": 6185,
      "humor": 6186,
      "showed": 6187,
      "curtain": 6188,
      "curios": 6189,
      "enjoyment": 6190,
      "vegan": 6191,
      "waves": 6192,
      "succumb": 6193,
      "greatest": 6194,
      "marginal": 6195,
      "stops": 6196,
      "syn": 6197,
      "burger": 6198,
      "india": 6199,
      "earn": 6200,
      "freezing": 6201,
      "annivers": 6202,
      "importantly": 6203,
      "ministry": 6204,
      "skip": 6205,
      "tiredness": 6206,
      "damned": 6207,
      "frustrating": 6208,
      "serving": 6209,
      "serenity": 6210,
      "##tility": 6211,
      "distress": 6212,
      "hobb": 6213,
      "studies": 6214,
      "commerci": 6215,
      "farm": 6216,
      "##ewing": 6217,
      "president": 6218,
      "contract": 6219,
      "controll": 6220,
      "easter": 6221,
      "##version": 6222,
      "production": 6223,
      "##orders": 6224,
      "homem": 6225,
      "pops": 6226,
      "continually": 6227,
      "continuous": 6228,
      "empathy": 6229,
      "empowered": 6230,
      "highs": 6231,
      "choir": 6232,
      "relaxing": 6233,
      "begins": 6234,
      "christians": 6235,
      "rooms": 6236,
      "torture": 6237,
      "explan": 6238,
      "##erman": 6239,
      "countless": 6240,
      "informed": 6241,
      "messages": 6242,
      "snobb": 6243,
      "##eady": 6244,
      "complicated": 6245,
      "singing": 6246,
      "freaked": 6247,
      "resentment": 6248,
      "rejection": 6249,
      "numbers": 6250,
      "uncertainty": 6251,
      "collar": 6252,
      "roast": 6253,
      "roots": 6254,
      "sickness": 6255,
      "##phone": 6256,
      "imagined": 6257,
      "sincer": 6258,
      "cheese": 6259,
      "cheaper": 6260,
      "halfway": 6261,
      "truths": 6262,
      "expectation": 6263,
      "behalf": 6264,
      "moods": 6265,
      "moody": 6266,
      "viewing": 6267,
      "viewer": 6268,
      "intelligence": 6269,
      "temp": 6270,
      "cases": 6271,
      "engaged": 6272,
      "leader": 6273,
      "police": 6274,
      "policy": 6275,
      "figures": 6276,
      "described": 6277,
      "clearer": 6278,
      "stressing": 6279,
      "mainly": 6280,
      "daddy": 6281,
      "drawn": 6282,
      "potentially": 6283,
      "exposed": 6284,
      "transl": 6285,
      "transform": 6286,
      "transfer": 6287,
      "transcend": 6288,
      "deserved": 6289,
      "darkness": 6290,
      "preparing": 6291,
      "practical": 6292,
      "glamour": 6293,
      "internal": 6294,
      "elev": 6295,
      "kisses": 6296,
      "forgetting": 6297,
      "profess": 6298,
      "grandpar": 6299,
      "accomplishing": 6300,
      "condem": 6301,
      "layer": 6302,
      "promised": 6303,
      "neglecting": 6304,
      "souls": 6305,
      "celebrating": 6306,
      "centre": 6307,
      "eval": 6308,
      "evil": 6309,
      "noneth": 6310,
      "include": 6311,
      "bounce": 6312,
      "lifetime": 6313,
      "circles": 6314,
      "existing": 6315,
      "existed": 6316,
      "signs": 6317,
      "travelling": 6318,
      "demanding": 6319,
      "covered": 6320,
      "fuckin": 6321,
      "challenged": 6322,
      "performing": 6323,
      "teenagers": 6324,
      "educated": 6325,
      "fancy": 6326,
      "settling": 6327,
      "limited": 6328,
      "discovering": 6329,
      "secretly": 6330,
      "histor": 6331,
      "massive": 6332,
      "traitor": 6333,
      "drops": 6334,
      "reviews": 6335,
      "organization": 6336,
      "besides": 6337,
      "jumping": 6338,
      "jumped": 6339,
      "required": 6340,
      "affirm": 6341,
      "workouts": 6342,
      "muscle": 6343,
      "labor": 6344,
      "route": 6345,
      "##iku": 6346,
      "behaviors": 6347,
      "mask": 6348,
      "millions": 6349,
      "uneasy": 6350,
      "grabbing": 6351,
      "consuming": 6352,
      "consumed": 6353,
      "fields": 6354,
      "nurt": 6355,
      "reference": 6356,
      "encouraging": 6357,
      "encouragement": 6358,
      "autom": 6359,
      "esteem": 6360,
      "establ": 6361,
      "origin": 6362,
      "select": 6363,
      "##box": 6364,
      "##aaa": 6365,
      "expert": 6366,
      "debate": 6367,
      "climb": 6368,
      "climbed": 6369,
      "darn": 6370,
      "hatred": 6371,
      "unnatur": 6372,
      "paintings": 6373,
      "therapist": 6374,
      "patience": 6375,
      "indulge": 6376,
      "arrive": 6377,
      "dropping": 6378,
      "conflicts": 6379,
      "conflicted": 6380,
      "electric": 6381,
      "hypocr": 6382,
      "julie": 6383,
      "julia": 6384,
      "links": 6385,
      "##flies": 6386,
      "counsel": 6387,
      "essence": 6388,
      "cowork": 6389,
      "tune": 6390,
      "athe": 6391,
      "athlet": 6392,
      "cuddle": 6393,
      "network": 6394,
      "butterflies": 6395,
      "sports": 6396,
      "quilting": 6397,
      "apparent": 6398,
      "bonus": 6399,
      "mildly": 6400,
      "wrapped": 6401,
      "outsider": 6402,
      "scenes": 6403,
      "objects": 6404,
      "robin": 6405,
      "derby": 6406,
      "juice": 6407,
      "necessarily": 6408,
      "tackle": 6409,
      "chaos": 6410,
      "permanently": 6411,
      "introduce": 6412,
      "boundaries": 6413,
      "domin": 6414,
      "disrespect": 6415,
      "conservative": 6416,
      "inferior": 6417,
      "compliments": 6418,
      "economy": 6419,
      "trauma": 6420,
      "screwed": 6421,
      "europe": 6422,
      "papers": 6423,
      "##space": 6424,
      "lipst": 6425,
      "suprem": 6426,
      "##ophob": 6427,
      "canada": 6428,
      "adopt": 6429,
      "announce": 6430,
      "observing": 6431,
      "predictable": 6432,
      "brief": 6433,
      "jacket": 6434,
      "korean": 6435,
      "##belie": 6436,
      "thighs": 6437,
      "resources": 6438,
      "acknowledge": 6439,
      "survive": 6440,
      "category": 6441,
      "dvd": 6442,
      "dreamed": 6443,
      "waters": 6444,
      "unhealthy": 6445,
      "exchange": 6446,
      "perfume": 6447,
      "endeavors": 6448,
      "john": 6449,
      "unsettled": 6450,
      "politicians": 6451,
      "philosophy": 6452,
      "elder": 6453,
      "television": 6454,
      "brilliant": 6455,
      "hardcore": 6456,
      "marketing": 6457,
      "swallow": 6458,
      "absolute": 6459,
      "reputation": 6460,
      "paranoia": 6461,
      "fasc": 6462,
      "jackson": 6463,
      "sibling": 6464,
      "##iques": 6465,
      "stereotyp": 6466,
      "protein": 6467,
      "frozen": 6468,
      "whatsoever": 6469,
      "curiosity": 6470,
      "anniversary": 6471,
      "snobbish": 6472,
      "grandparents": 6473,
      "nonetheless": 6474,
      "established": 6475,
      "aid": 6476,
      "auss": 6477,
      "bin": 6478,
      "bay": 6479,
      "bills": 6480,
      "binge": 6481,
      "coo": 6482,
      "cage": 6483,
      "cities": 6484,
      "cock": 6485,
      "cert": 6486,
      "cube": 6487,
      "cooped": 6488,
      "dou": 6489,
      "dent": 6490,
      "dood": 6491,
      "dose": 6492,
      "duck": 6493,
      "eb": 6494,
      "eu": 6495,
      "echo": 6496,
      "ego": 6497,
      "fb": 6498,
      "fishing": 6499,
      "fift": 6500,
      "flex": 6501,
      "gal": 6502,
      "gee": 6503,
      "gown": 6504,
      "gaz": 6505,
      "gna": 6506,
      "gaming": 6507,
      "hoo": 6508,
      "hike": 6509,
      "iphone": 6510,
      "jen": 6511,
      "jere": 6512,
      "jog": 6513,
      "joint": 6514,
      "jaw": 6515,
      "jane": 6516,
      "ken": 6517,
      "lj": 6518,
      "lur": 6519,
      "lest": 6520,
      "lun": 6521,
      "lect": 6522,
      "lake": 6523,
      "lump": 6524,
      "mut": 6525,
      "mens": 6526,
      "mont": 6527,
      "munch": 6528,
      "nest": 6529,
      "num": 6530,
      "nig": 6531,
      "nick": 6532,
      "nons": 6533,
      "nik": 6534,
      "ow": 6535,
      "oly": 6536,
      "oper": 6537,
      "owl": 6538,
      "osc": 6539,
      "por": 6540,
      "pes": 6541,
      "pad": 6542,
      "pant": 6543,
      "pig": 6544,
      "poke": 6545,
      "rot": 6546,
      "ray": 6547,
      "rant": 6548,
      "rally": 6549,
      "rere": 6550,
      "rag": 6551,
      "rose": 6552,
      "roy": 6553,
      "rage": 6554,
      "rib": 6555,
      "raging": 6556,
      "roof": 6557,
      "ss": 6558,
      "sust": 6559,
      "sig": 6560,
      "south": 6561,
      "tay": 6562,
      "tant": 6563,
      "ties": 6564,
      "tap": 6565,
      "tense": 6566,
      "tai": 6567,
      "tube": 6568,
      "tinge": 6569,
      "uh": 6570,
      "um": 6571,
      "uber": 6572,
      "ugg": 6573,
      "ugl": 6574,
      "vine": 6575,
      "wing": 6576,
      "wif": 6577,
      "woe": 6578,
      "xd": 6579,
      "xx": 6580,
      "xmas": 6581,
      "yelling": 6582,
      "zoom": 6583,
      "##off": 6584,
      "##iently": 6585,
      "##nel": 6586,
      "##nia": 6587,
      "##sed": 6588,
      "##sters": 6589,
      "##ho": 6590,
      "##has": 6591,
      "##house": 6592,
      "##hold": 6593,
      "##rast": 6594,
      "##rum": 6595,
      "##roid": 6596,
      "##lin": 6597,
      "##life": 6598,
      "##da": 6599,
      "##down": 6600,
      "##vis": 6601,
      "##vity": 6602,
      "##bow": 6603,
      "##bling": 6604,
      "##ua": 6605,
      "##uise": 6606,
      "##ups": 6607,
      "##aj": 6608,
      "##afe": 6609,
      "##aign": 6610,
      "##cking": 6611,
      "##cil": 6612,
      "##cies": 6613,
      "##fy": 6614,
      "##fting": 6615,
      "##fice": 6616,
      "##ford": 6617,
      "##gary": 6618,
      "##greg": 6619,
      "##mare": 6620,
      "##mod": 6621,
      "##mont": 6622,
      "##ws": 6623,
      "##wr": 6624,
      "##wan": 6625,
      "##xic": 6626,
      "##xual": 6627,
      "##kind": 6628,
      "##ji": 6629,
      "##jam": 6630,
      "##jud": 6631,
      "##elet": 6632,
      "##elines": 6633,
      "##ini": 6634,
      "##inn": 6635,
      "##inting": 6636,
      "thy": 6637,
      "thurs": 6638,
      "feat": 6639,
      "##eral": 6640,
      "##ndr": 6641,
      "theater": 6642,
      "toys": 6643,
      "##orters": 6644,
      "##escend": 6645,
      "##itably": 6646,
      "##itution": 6647,
      "##isy": 6648,
      "##isc": 6649,
      "##ares": 6650,
      "##arant": 6651,
      "beef": 6652,
      "inh": 6653,
      "ing": 6654,
      "inability": 6655,
      "##vet": 6656,
      "##rey": 6657,
      "##rees": 6658,
      "##uscript": 6659,
      "whiny": 6660,
      "##otion": 6661,
      "itll": 6662,
      "##icity": 6663,
      "##ications": 6664,
      "stan": 6665,
      "stable": 6666,
      "stem": 6667,
      "stiff": 6668,
      "stumble": 6669,
      "styles": 6670,
      "steady": 6671,
      "reper": 6672,
      "reacted": 6673,
      "reju": 6674,
      "##ali": 6675,
      "##alth": 6676,
      "##alink": 6677,
      "sooth": 6678,
      "onc": 6679,
      "##ida": 6680,
      "##iders": 6681,
      "##imb": 6682,
      "isra": 6683,
      "abdom": 6684,
      "##ospect": 6685,
      "##ads": 6686,
      "##ading": 6687,
      "##adays": 6688,
      "anth": 6689,
      "##uries": 6690,
      "##urities": 6691,
      "##uriated": 6692,
      "##ulk": 6693,
      "sha": 6694,
      "shel": 6695,
      "shaking": 6696,
      "shades": 6697,
      "shadow": 6698,
      "##char": 6699,
      "##tha": 6700,
      "##rian": 6701,
      "sum": 6702,
      "suff": 6703,
      "sums": 6704,
      "suits": 6705,
      "justin": 6706,
      "justified": 6707,
      "justify": 6708,
      "heap": 6709,
      "nep": 6710,
      "albe": 6711,
      "align": 6712,
      "org": 6713,
      "##arts": 6714,
      "worries": 6715,
      "comedy": 6716,
      "knit": 6717,
      "chi": 6718,
      "chic": 6719,
      "cham": 6720,
      "choke": 6721,
      "chasing": 6722,
      "unit": 6723,
      "unem": 6724,
      "unappreciated": 6725,
      "ups": 6726,
      "upside": 6727,
      "french": 6728,
      "loosing": 6729,
      "timing": 6730,
      "trash": 6731,
      "trapped": 6732,
      "outr": 6733,
      "outfits": 6734,
      "weap": 6735,
      "##iles": 6736,
      "##ender": 6737,
      "##agger": 6738,
      "##ested": 6739,
      "##estone": 6740,
      "##oles": 6741,
      "anyways": 6742,
      "theyll": 6743,
      "##umm": 6744,
      "nowadays": 6745,
      "spur": 6746,
      "spec": 6747,
      "spell": 6748,
      "spice": 6749,
      "spaces": 6750,
      "wouldve": 6751,
      "stro": 6752,
      "strain": 6753,
      "disney": 6754,
      "agon": 6755,
      "agent": 6756,
      "blush": 6757,
      "prem": 6758,
      "evenings": 6759,
      "##rap": 6760,
      "##ptions": 6761,
      "overload": 6762,
      "##assy": 6763,
      "needle": 6764,
      "##osexual": 6765,
      "thereby": 6766,
      "nov": 6767,
      "##igo": 6768,
      "plastic": 6769,
      "wrist": 6770,
      "awe": 6771,
      "backp": 6772,
      "backward": 6773,
      "manuscript": 6774,
      "guest": 6775,
      "guarant": 6776,
      "hasn": 6777,
      "reson": 6778,
      "adren": 6779,
      "adoring": 6780,
      "thrill": 6781,
      "relent": 6782,
      "offered": 6783,
      "worker": 6784,
      "insight": 6785,
      "insign": 6786,
      "insinc": 6787,
      "partially": 6788,
      "remem": 6789,
      "##ucing": 6790,
      "##owned": 6791,
      "readings": 6792,
      "yearning": 6793,
      "diab": 6794,
      "diary": 6795,
      "diverse": 6796,
      "dialog": 6797,
      "supply": 6798,
      "suppressed": 6799,
      "##berry": 6800,
      "##izes": 6801,
      "seed": 6802,
      "sequel": 6803,
      "dressed": 6804,
      "drug": 6805,
      "whereas": 6806,
      "designed": 6807,
      "glaring": 6808,
      "glob": 6809,
      "sloth": 6810,
      "##ensitive": 6811,
      "crushing": 6812,
      "cricket": 6813,
      "cruel": 6814,
      "cramps": 6815,
      "moves": 6816,
      "flood": 6817,
      "flick": 6818,
      "flirt": 6819,
      "flesh": 6820,
      "december": 6821,
      "decline": 6822,
      "deciding": 6823,
      "##comes": 6824,
      "##tte": 6825,
      "finances": 6826,
      "angels": 6827,
      "worlds": 6828,
      "honor": 6829,
      "discip": 6830,
      "careful": 6831,
      "paralys": 6832,
      "joined": 6833,
      "joining": 6834,
      "surge": 6835,
      "coupled": 6836,
      "handling": 6837,
      "runners": 6838,
      "attach": 6839,
      "attended": 6840,
      "attacked": 6841,
      "attitudes": 6842,
      "nightmare": 6843,
      "trib": 6844,
      "trig": 6845,
      "walks": 6846,
      "crave": 6847,
      "consp": 6848,
      "consol": 6849,
      "consult": 6850,
      "conscience": 6851,
      "monster": 6852,
      "##umps": 6853,
      "valent": 6854,
      "assign": 6855,
      "mornings": 6856,
      "cleans": 6857,
      "resting": 6858,
      "rested": 6859,
      "sleepy": 6860,
      "elated": 6861,
      "believes": 6862,
      "watches": 6863,
      "region": 6864,
      "regain": 6865,
      "devote": 6866,
      "curse": 6867,
      "curled": 6868,
      "schools": 6869,
      "##etics": 6870,
      "enjoyable": 6871,
      "##ervation": 6872,
      "wax": 6873,
      "greatly": 6874,
      "artwork": 6875,
      "administ": 6876,
      "reasonably": 6877,
      "marry": 6878,
      "##istically": 6879,
      "burned": 6880,
      "charlie": 6881,
      "kidn": 6882,
      "subt": 6883,
      "pasta": 6884,
      "anna": 6885,
      "aches": 6886,
      "buff": 6887,
      "instance": 6888,
      "##osition": 6889,
      "invite": 6890,
      "invaded": 6891,
      "##arrel": 6892,
      "pressing": 6893,
      "detox": 6894,
      "positions": 6895,
      "defensive": 6896,
      "misery": 6897,
      "##ficial": 6898,
      "brew": 6899,
      "contrast": 6900,
      "uncaring": 6901,
      "sets": 6902,
      "keys": 6903,
      "gladly": 6904,
      "homosexual": 6905,
      "population": 6906,
      "tends": 6907,
      "tendency": 6908,
      "embar": 6909,
      "appreciation": 6910,
      "adds": 6911,
      "addiction": 6912,
      "emphas": 6913,
      "hotel": 6914,
      "refres": 6915,
      "relaxation": 6916,
      "undert": 6917,
      "ignor": 6918,
      "##iolog": 6919,
      "medium": 6920,
      "meditation": 6921,
      "countries": 6922,
      "entitled": 6923,
      "infuriated": 6924,
      "wars": 6925,
      "absence": 6926,
      "cave": 6927,
      "sne": 6928,
      "stands": 6929,
      "consideration": 6930,
      "violated": 6931,
      "definately": 6932,
      "repair": 6933,
      "homeschool": 6934,
      "divor": 6935,
      "typical": 6936,
      "determine": 6937,
      "determination": 6938,
      "hopelessness": 6939,
      "rober": 6940,
      "dealt": 6941,
      "hairc": 6942,
      "pictured": 6943,
      "legend": 6944,
      "weekends": 6945,
      "spirits": 6946,
      "follower": 6947,
      "crew": 6948,
      "sounding": 6949,
      "viewed": 6950,
      "virtual": 6951,
      "reduce": 6952,
      "etsy": 6953,
      "fantasy": 6954,
      "tempt": 6955,
      "examination": 6956,
      "statements": 6957,
      "forgiving": 6958,
      "fairy": 6959,
      "leads": 6960,
      "midw": 6961,
      "slowing": 6962,
      "publish": 6963,
      "sensations": 6964,
      "sensible": 6965,
      "quicker": 6966,
      "accompan": 6967,
      "accommod": 6968,
      "speaks": 6969,
      "advanced": 6970,
      "severely": 6971,
      "windows": 6972,
      "provided": 6973,
      "voices": 6974,
      "wallet": 6975,
      "fold": 6976,
      "hostel": 6977,
      "occur": 6978,
      "entertainment": 6979,
      "##lands": 6980,
      "locked": 6981,
      "concerning": 6982,
      "url": 6983,
      "urg": 6984,
      "pushed": 6985,
      "affects": 6986,
      "presenting": 6987,
      "harry": 6988,
      "harmon": 6989,
      "radiation": 6990,
      "##aneous": 6991,
      "stole": 6992,
      "stopping": 6993,
      "benefits": 6994,
      "attempts": 6995,
      "condescend": 6996,
      "prompt": 6997,
      "neglected": 6998,
      "celebration": 6999,
      "cyber": 7000,
      "epic": 7001,
      "stares": 7002,
      "inclined": 7003,
      "answering": 7004,
      "visitor": 7005,
      "demon": 7006,
      "demons": 7007,
      "demands": 7008,
      "discussion": 7009,
      "daniel": 7010,
      "dancer": 7011,
      "performances": 7012,
      "educate": 7013,
      "audiences": 7014,
      "improving": 7015,
      "smells": 7016,
      "steam": 7017,
      "stepping": 7018,
      "spray": 7019,
      "increase": 7020,
      "limits": 7021,
      "heavily": 7022,
      "appears": 7023,
      "appeared": 7024,
      "discovery": 7025,
      "programming": 7026,
      "property": 7027,
      "combined": 7028,
      "released": 7029,
      "freedoms": 7030,
      "services": 7031,
      "apology": 7032,
      "mentality": 7033,
      "portion": 7034,
      "videos": 7035,
      "contributed": 7036,
      "contributing": 7037,
      "surroundings": 7038,
      "episodes": 7039,
      "suggested": 7040,
      "strive": 7041,
      "strikes": 7042,
      "requires": 7043,
      "affair": 7044,
      "investing": 7045,
      "balls": 7046,
      "sales": 7047,
      "shops": 7048,
      "remains": 7049,
      "meaningless": 7050,
      "politics": 7051,
      "cycling": 7052,
      "behaviour": 7053,
      "masc": 7054,
      "naive": 7055,
      "shallow": 7056,
      "throbbing": 7057,
      "sweaty": 7058,
      "articles": 7059,
      "captured": 7060,
      "nicer": 7061,
      "panel": 7062,
      "replaced": 7063,
      "introver": 7064,
      "consumer": 7065,
      "obsession": 7066,
      "medication": 7067,
      "pursuing": 7068,
      "attraction": 7069,
      "attractive": 7070,
      "cupc": 7071,
      "dreaded": 7072,
      "pinterest": 7073,
      "semi": 7074,
      "##force": 7075,
      "official": 7076,
      "separation": 7077,
      "achievement": 7078,
      "autumn": 7079,
      "duties": 7080,
      "seldom": 7081,
      "climbing": 7082,
      "flaws": 7083,
      "schedul": 7084,
      "overwhelmingly": 7085,
      "obligations": 7086,
      "costume": 7087,
      "randomly": 7088,
      "##porate": 7089,
      "consciously": 7090,
      "cheerful": 7091,
      "neighbour": 7092,
      "neighbors": 7093,
      "nausea": 7094,
      "notebook": 7095,
      "alternate": 7096,
      "adults": 7097,
      "drinks": 7098,
      "flashback": 7099,
      "fulfilling": 7100,
      "campaign": 7101,
      "landed": 7102,
      "slee": 7103,
      "blowing": 7104,
      "arriving": 7105,
      "##ettes": 7106,
      "essentially": 7107,
      "breastfe": 7108,
      "shooting": 7109,
      "techniques": 7110,
      "verge": 7111,
      "revealed": 7112,
      "delivery": 7113,
      "assistant": 7114,
      "assistance": 7115,
      "graduating": 7116,
      "ultimate": 7117,
      "bowl": 7118,
      "cuddling": 7119,
      "corners": 7120,
      "sacred": 7121,
      "##blog": 7122,
      "argument": 7123,
      "arguments": 7124,
      "critic": 7125,
      "influence": 7126,
      "spreading": 7127,
      "disliked": 7128,
      "emerging": 7129,
      "clarity": 7130,
      "scenar": 7131,
      "applying": 7132,
      "baseball": 7133,
      "candy": 7134,
      "necessity": 7135,
      "source": 7136,
      "##burn": 7137,
      "whims": 7138,
      "soooo": 7139,
      "permanent": 7140,
      "powers": 7141,
      "powder": 7142,
      "toddler": 7143,
      "##annel": 7144,
      "unreal": 7145,
      "split": 7146,
      "disrespected": 7147,
      "contemplating": 7148,
      "application": 7149,
      "distinctly": 7150,
      "complimented": 7151,
      "grieving": 7152,
      "cabin": 7153,
      "wandering": 7154,
      "wipe": 7155,
      "tossing": 7156,
      "ingred": 7157,
      "convenience": 7158,
      "chapters": 7159,
      "weighing": 7160,
      "spanish": 7161,
      "sparkle": 7162,
      "independent": 7163,
      "temporary": 7164,
      "temporarily": 7165,
      "cigarette": 7166,
      "cigarettes": 7167,
      "volunteer": 7168,
      "subconsciously": 7169,
      "gallery": 7170,
      "tolerate": 7171,
      "permalink": 7172,
      "department": 7173,
      "empathize": 7174,
      "hunting": 7175,
      "unfolding": 7176,
      "virginia": 7177,
      "citizen": 7178,
      "bapt": 7179,
      "civil": 7180,
      "fierc": 7181,
      "micha": 7182,
      "village": 7183,
      "wheel": 7184,
      "unusual": 7185,
      "enemy": 7186,
      "preparation": 7187,
      "inevitably": 7188,
      "sacrifice": 7189,
      "hollywood": 7190,
      "australia": 7191,
      "data": 7192,
      "dessert": 7193,
      "hubby": 7194,
      "telep": 7195,
      "vocal": 7196,
      "thousand": 7197,
      "revenge": 7198,
      "exhilar": 7199,
      "blonde": 7200,
      "wrestling": 7201,
      "designer": 7202,
      "firmly": 7203,
      "metaphor": 7204,
      "profoundly": 7205,
      "cautious": 7206,
      "landsc": 7207,
      "socks": 7208,
      "unbear": 7209,
      "goodbye": 7210,
      "remarks": 7211,
      "remotely": 7212,
      "genuine": 7213,
      "goddamn": 7214,
      "curtains": 7215,
      "highschool": 7216,
      "explanation": 7217,
      "glamourous": 7218,
      "elevator": 7219,
      "automatically": 7220,
      "##ophobic": 7221,
      "fifteen": 7222,
      "jeremy": 7223,
      "numerous": 7224,
      "nonsense": 7225,
      "olymp": 7226,
      "taylor": 7227,
      "thursday": 7228,
      "rejuven": 7229,
      "albeit": 7230,
      "adrenaline": 7231,
      "insignificant": 7232,
      "insincere": 7233,
      "global": 7234,
      "refreshing": 7235,
      "apt": 7236,
      "aka": 7237,
      "aesth": 7238,
      "aversion": 7239,
      "bone": 7240,
      "bind": 7241,
      "bened": 7242,
      "bip": 7243,
      "batch": 7244,
      "batter": 7245,
      "bitten": 7246,
      "backing": 7247,
      "btw": 7248,
      "cc": 7249,
      "cin": 7250,
      "cul": 7251,
      "cass": 7252,
      "cure": 7253,
      "cub": 7254,
      "crib": 7255,
      "cats": 7256,
      "dot": 7257,
      "dow": 7258,
      "dall": 7259,
      "dint": 7260,
      "dang": 7261,
      "daught": 7262,
      "dried": 7263,
      "eg": 7264,
      "ell": 7265,
      "eve": 7266,
      "eag": 7267,
      "era": 7268,
      "epid": 7269,
      "eric": 7270,
      "err": 7271,
      "ff": 7272,
      "fath": 7273,
      "faced": 7274,
      "fuel": 7275,
      "foul": 7276,
      "ga": 7277,
      "gel": 7278,
      "ger": 7279,
      "gir": 7280,
      "gate": 7281,
      "gently": 7282,
      "gaining": 7283,
      "gates": 7284,
      "german": 7285,
      "hed": 7286,
      "hous": 7287,
      "hip": 7288,
      "hollow": 7289,
      "hilar": 7290,
      "jess": 7291,
      "jers": 7292,
      "jason": 7293,
      "jord": 7294,
      "jones": 7295,
      "james": 7296,
      "kh": 7297,
      "kr": 7298,
      "kay": 7299,
      "kim": 7300,
      "kava": 7301,
      "lou": 7302,
      "les": 7303,
      "lull": 7304,
      "lush": 7305,
      "lugg": 7306,
      "loop": 7307,
      "mat": 7308,
      "mic": 7309,
      "mam": 7310,
      "mull": 7311,
      "melt": 7312,
      "mary": 7313,
      "mates": 7314,
      "muck": 7315,
      "mund": 7316,
      "micr": 7317,
      "mamm": 7318,
      "mashed": 7319,
      "nu": 7320,
      "nan": 7321,
      "nam": 7322,
      "nation": 7323,
      "nations": 7324,
      "native": 7325,
      "od": 7326,
      "oily": 7327,
      "owe": 7328,
      "poo": 7329,
      "pine": 7330,
      "pond": 7331,
      "pak": 7332,
      "peep": 7333,
      "pip": 7334,
      "patt": 7335,
      "pills": 7336,
      "ros": 7337,
      "rab": 7338,
      "rang": 7339,
      "rating": 7340,
      "rings": 7341,
      "raining": 7342,
      "rape": 7343,
      "racing": 7344,
      "rushing": 7345,
      "sas": 7346,
      "sans": 7347,
      "sized": 7348,
      "sque": 7349,
      "selling": 7350,
      "tit": 7351,
      "tan": 7352,
      "til": 7353,
      "tiss": 7354,
      "tax": 7355,
      "tape": 7356,
      "tummy": 7357,
      "upper": 7358,
      "vast": 7359,
      "wre": 7360,
      "wakes": 7361,
      "wicked": 7362,
      "yard": 7363,
      "yellow": 7364,
      "zeal": 7365,
      "##oir": 7366,
      "##oking": 7367,
      "##oft": 7368,
      "##oons": 7369,
      "##overs": 7370,
      "##ige": 7371,
      "##ioc": 7372,
      "##iented": 7373,
      "##nit": 7374,
      "##night": 7375,
      "##nies": 7376,
      "##tr": 7377,
      "##ss": 7378,
      "##hr": 7379,
      "##han": 7380,
      "##ris": 7381,
      "##rid": 7382,
      "##rospect": 7383,
      "##lr": 7384,
      "##eous": 7385,
      "##dess": 7386,
      "##dain": 7387,
      "##va": 7388,
      "##vin": 7389,
      "##yard": 7390,
      "##bu": 7391,
      "##bid": 7392,
      "##bag": 7393,
      "##bour": 7394,
      "##bows": 7395,
      "##backs": 7396,
      "##uge": 7397,
      "##uating": 7398,
      "##ault": 7399,
      "##pi": 7400,
      "##pool": 7401,
      "##page": 7402,
      "##ca": 7403,
      "##cers": 7404,
      "##case": 7405,
      "##cuss": 7406,
      "##gu": 7407,
      "##gment": 7408,
      "##zel": 7409,
      "##mn": 7410,
      "##min": 7411,
      "##mic": 7412,
      "##je": 7413,
      "##elle": 7414,
      "##elly": 7415,
      "##eline": 7416,
      "##inth": 7417,
      "##inate": 7418,
      "thread": 7419,
      "thirty": 7420,
      "thai": 7421,
      "thief": 7422,
      "fet": 7423,
      "febr": 7424,
      "feder": 7425,
      "##inges": 7426,
      "##eri": 7427,
      "##erved": 7428,
      "##nder": 7429,
      "##ativity": 7430,
      "toy": 7431,
      "toll": 7432,
      "##orter": 7433,
      "##orate": 7434,
      "##orage": 7435,
      "##esy": 7436,
      "##onc": 7437,
      "##onym": 7438,
      "##itect": 7439,
      "##itious": 7440,
      "##itating": 7441,
      "##itory": 7442,
      "##itchy": 7443,
      "##animate": 7444,
      "##isher": 7445,
      "##isation": 7446,
      "##ara": 7447,
      "##arch": 7448,
      "bef": 7449,
      "##omp": 7450,
      "##omen": 7451,
      "##omas": 7452,
      "inher": 7453,
      "inqu": 7454,
      "inches": 7455,
      "mys": 7456,
      "myspace": 7457,
      "##reen": 7458,
      "##lead": 7459,
      "##usively": 7460,
      "##ota": 7461,
      "##otes": 7462,
      "##utely": 7463,
      "ham": 7464,
      "haze": 7465,
      "haunt": 7466,
      "ital": 7467,
      "##icing": 7468,
      "##icons": 7469,
      "stated": 7470,
      "stone": 7471,
      "stell": 7472,
      "stol": 7473,
      "stack": 7474,
      "stared": 7475,
      "stream": 7476,
      "starr": 7477,
      "stock": 7478,
      "stoned": 7479,
      "rein": 7480,
      "rever": 7481,
      "reception": 7482,
      "##ala": 7483,
      "##alk": 7484,
      "##ales": 7485,
      "imper": 7486,
      "likeable": 7487,
      "sob": 7488,
      "soak": 7489,
      "sober": 7490,
      "##entious": 7491,
      "forest": 7492,
      "forcing": 7493,
      "amster": 7494,
      "##imately": 7495,
      "##imented": 7496,
      "##imming": 7497,
      "##acle": 7498,
      "abc": 7499,
      "##ioned": 7500,
      "##osy": 7501,
      "##ado": 7502,
      "##outs": 7503,
      "##anting": 7504,
      "noted": 7505,
      "notion": 7506,
      "##ustion": 7507,
      "##ustered": 7508,
      "##ustomed": 7509,
      "ank": 7510,
      "anci": 7511,
      "analys": 7512,
      "##urd": 7513,
      "##ura": 7514,
      "##urance": 7515,
      "##ula": 7516,
      "##ulty": 7517,
      "##ulating": 7518,
      "shr": 7519,
      "shir": 7520,
      "shine": 7521,
      "sheep": 7522,
      "shiny": 7523,
      "shiver": 7524,
      "shimm": 7525,
      "##child": 7526,
      "##iration": 7527,
      "##iracy": 7528,
      "##illion": 7529,
      "doom": 7530,
      "atle": 7531,
      "attain": 7532,
      "##rier": 7533,
      "##oused": 7534,
      "suffic": 7535,
      "##ament": 7536,
      "##amond": 7537,
      "##amper": 7538,
      "##ammar": 7539,
      "hehe": 7540,
      "prone": 7541,
      "prol": 7542,
      "pressed": 7543,
      "prison": 7544,
      "conqu": 7545,
      "congest": 7546,
      "convention": 7547,
      "##ersed": 7548,
      "comfy": 7549,
      "knee": 7550,
      "knight": 7551,
      "knoc": 7552,
      "knees": 7553,
      "chin": 7554,
      "chore": 7555,
      "chip": 7556,
      "chase": 7557,
      "chunk": 7558,
      "channel": 7559,
      "unr": 7560,
      "unres": 7561,
      "uninterest": 7562,
      "exceed": 7563,
      "exagger": 7564,
      "##ables": 7565,
      "##abilities": 7566,
      "cancel": 7567,
      "mand": 7568,
      "donut": 7569,
      "fruits": 7570,
      "fridge": 7571,
      "##seas": 7572,
      "loath": 7573,
      "trimes": 7574,
      "trained": 7575,
      "truck": 7576,
      "trails": 7577,
      "outst": 7578,
      "outcast": 7579,
      "wea": 7580,
      "weary": 7581,
      "wealth": 7582,
      "##ista": 7583,
      "##istan": 7584,
      "##istries": 7585,
      "##agne": 7586,
      "##agram": 7587,
      "league": 7588,
      "encomp": 7589,
      "##unami": 7590,
      "##olar": 7591,
      "##olite": 7592,
      "dew": 7593,
      "deod": 7594,
      "deals": 7595,
      "##ongs": 7596,
      "##ums": 7597,
      "##ste": 7598,
      "wholly": 7599,
      "spa": 7600,
      "spit": 7601,
      "spare": 7602,
      "specially": 7603,
      "spons": 7604,
      "spots": 7605,
      "disdain": 7606,
      "aged": 7607,
      "blo": 7608,
      "blake": 7609,
      "blown": 7610,
      "blues": 7611,
      "prejud": 7612,
      "arch": 7613,
      "arab": 7614,
      "##pture": 7615,
      "overd": 7616,
      "oversh": 7617,
      "overseas": 7618,
      "##assed": 7619,
      "##igr": 7620,
      "grammar": 7621,
      "plun": 7622,
      "plays": 7623,
      "plants": 7624,
      "placed": 7625,
      "##ourse": 7626,
      "quo": 7627,
      "quant": 7628,
      "quarter": 7629,
      "quarrel": 7630,
      "awards": 7631,
      "usa": 7632,
      "user": 7633,
      "##iched": 7634,
      "##ogged": 7635,
      "##ogram": 7636,
      "dayd": 7637,
      "daycare": 7638,
      "cla": 7639,
      "clay": 7640,
      "clam": 7641,
      "closing": 7642,
      "cliff": 7643,
      "clients": 7644,
      "backs": 7645,
      "backed": 7646,
      "backyard": 7647,
      "manip": 7648,
      "compre": 7649,
      "guard": 7650,
      "resort": 7651,
      "resolve": 7652,
      "ade": 7653,
      "ada": 7654,
      "adorable": 7655,
      "throne": 7656,
      "relative": 7657,
      "relatives": 7658,
      "sauce": 7659,
      "safer": 7660,
      "contam": 7661,
      "insert": 7662,
      "insides": 7663,
      "insensitive": 7664,
      "acutely": 7665,
      "righteous": 7666,
      "##ission": 7667,
      "actor": 7668,
      "actors": 7669,
      "##ocation": 7670,
      "##ocious": 7671,
      "diy": 7672,
      "dip": 7673,
      "diamond": 7674,
      "brat": 7675,
      "brac": 7676,
      "brimming": 7677,
      "##icky": 7678,
      "##ache": 7679,
      "##achel": 7680,
      "idol": 7681,
      "##berg": 7682,
      "smir": 7683,
      "smack": 7684,
      "coh": 7685,
      "coke": 7686,
      "covers": 7687,
      "cozy": 7688,
      "coaster": 7689,
      "scot": 7690,
      "scattered": 7691,
      "scrap": 7692,
      "longest": 7693,
      "##izer": 7694,
      "sew": 7695,
      "seven": 7696,
      "seams": 7697,
      "welling": 7698,
      "drow": 7699,
      "drain": 7700,
      "perc": 7701,
      "pertain": 7702,
      "wherever": 7703,
      "momo": 7704,
      "##weight": 7705,
      "heartbeat": 7706,
      "heartbreak": 7707,
      "terr": 7708,
      "gloss": 7709,
      "newest": 7710,
      "slave": 7711,
      "sins": 7712,
      "##ensions": 7713,
      "##ildered": 7714,
      "moaning": 7715,
      "genius": 7716,
      "impati": 7717,
      "imposed": 7718,
      "impending": 7719,
      "impolite": 7720,
      "flag": 7721,
      "flour": 7722,
      "flip": 7723,
      "flipping": 7724,
      "flattered": 7725,
      "flustered": 7726,
      "##apes": 7727,
      "##apers": 7728,
      "##apable": 7729,
      "distant": 7730,
      "distrib": 7731,
      "##onto": 7732,
      "comeback": 7733,
      "decade": 7734,
      "decently": 7735,
      "finland": 7736,
      "passeng": 7737,
      "blogged": 7738,
      "owned": 7739,
      "tex": 7740,
      "teens": 7741,
      "twitchy": 7742,
      "##uction": 7743,
      "cars": 7744,
      "listed": 7745,
      "excess": 7746,
      "excuses": 7747,
      "emoticons": 7748,
      "generations": 7749,
      "painted": 7750,
      "discount": 7751,
      "carefully": 7752,
      "pleasing": 7753,
      "pleases": 7754,
      "iron": 7755,
      "ironic": 7756,
      "survey": 7757,
      "##jected": 7758,
      "handing": 7759,
      "runner": 7760,
      "goddess": 7761,
      "nightmar": 7762,
      "tries": 7763,
      "extr": 7764,
      "giveaway": 7765,
      "##umped": 7766,
      "recre": 7767,
      "irres": 7768,
      "irrational": 7769,
      "nothings": 7770,
      "sleeps": 7771,
      "hurtful": 7772,
      "believer": 7773,
      "humble": 7774,
      "humility": 7775,
      "mightily": 7776,
      "devot": 7777,
      "interactions": 7778,
      "interacting": 7779,
      "interpret": 7780,
      "veget": 7781,
      "vegg": 7782,
      "wah": 7783,
      "waits": 7784,
      "sucking": 7785,
      "sucked": 7786,
      "greatness": 7787,
      "admiration": 7788,
      "understands": 7789,
      "march": 7790,
      "##irement": 7791,
      "wrongly": 7792,
      "syndr": 7793,
      "buried": 7794,
      "charge": 7795,
      "facts": 7796,
      "factor": 7797,
      "factory": 7798,
      "indian": 7799,
      "indication": 7800,
      "induced": 7801,
      "annual": 7802,
      "mindful": 7803,
      "obst": 7804,
      "obama": 7805,
      "##onscious": 7806,
      "bund": 7807,
      "built": 7808,
      "mince": 7809,
      "ministries": 7810,
      "skies": 7811,
      "invitation": 7812,
      "greed": 7813,
      "stupidity": 7814,
      "perfection": 7815,
      "frustrations": 7816,
      "served": 7817,
      "slighted": 7818,
      "hob": 7819,
      "hopped": 7820,
      "unsav": 7821,
      "unsafe": 7822,
      "loner": 7823,
      "societ": 7824,
      "command": 7825,
      "calming": 7826,
      "household": 7827,
      "uncles": 7828,
      "unconscious": 7829,
      "lucy": 7830,
      "homeless": 7831,
      "braz": 7832,
      "possess": 7833,
      "possibilities": 7834,
      "effic": 7835,
      "annoyance": 7836,
      "annoyingly": 7837,
      "addicted": 7838,
      "empathetic": 7839,
      "empower": 7840,
      "refuge": 7841,
      "highest": 7842,
      "highlight": 7843,
      "supermar": 7844,
      "exhausting": 7845,
      "exhaustion": 7846,
      "christm": 7847,
      "underne": 7848,
      "ignorant": 7849,
      "mattered": 7850,
      "memor": 7851,
      "swed": 7852,
      "swings": 7853,
      "explored": 7854,
      "explode": 7855,
      "paused": 7856,
      "embarrassment": 7857,
      "county": 7858,
      "entrance": 7859,
      "absurd": 7860,
      "awkwardness": 7861,
      "snack": 7862,
      "snugg": 7863,
      "sniff": 7864,
      "fabrics": 7865,
      "openly": 7866,
      "dreamy": 7867,
      "mothering": 7868,
      "motherhood": 7869,
      "negativity": 7870,
      "freely": 7871,
      "repet": 7872,
      "melod": 7873,
      "youngest": 7874,
      "youngsters": 7875,
      "calmer": 7876,
      "numbness": 7877,
      "typed": 7878,
      "types": 7879,
      "metal": 7880,
      "popped": 7881,
      "pointing": 7882,
      "richard": 7883,
      "hopelessly": 7884,
      "edgy": 7885,
      "editor": 7886,
      "falls": 7887,
      "collected": 7888,
      "musicians": 7889,
      "purely": 7890,
      "purple": 7891,
      "visual": 7892,
      "visible": 7893,
      "isolation": 7894,
      "insecurities": 7895,
      "photogra": 7896,
      "sidewal": 7897,
      "touches": 7898,
      "devastating": 7899,
      "retrospect": 7900,
      "retirement": 7901,
      "intimacy": 7902,
      "relieve": 7903,
      "secondary": 7904,
      "breaks": 7905,
      "opposed": 7906,
      "legacy": 7907,
      "cheers": 7908,
      "cheered": 7909,
      "cheering": 7910,
      "driver": 7911,
      "hesitate": 7912,
      "bitterness": 7913,
      "privacy": 7914,
      "basic": 7915,
      "##kets": 7916,
      "defeat": 7917,
      "creation": 7918,
      "creations": 7919,
      "eco": 7920,
      "##iece": 7921,
      "grows": 7922,
      "viewers": 7923,
      "accent": 7924,
      "accur": 7925,
      "accustomed": 7926,
      "examples": 7927,
      "furnit": 7928,
      "graph": 7929,
      "teary": 7930,
      "loyalty": 7931,
      "submit": 7932,
      "bars": 7933,
      "barrier": 7934,
      "tomatoes": 7935,
      "solo": 7936,
      "solve": 7937,
      "solved": 7938,
      "solutions": 7939,
      "privilege": 7940,
      "polite": 7941,
      "publisher": 7942,
      "describing": 7943,
      "description": 7944,
      "teams": 7945,
      "cuts": 7946,
      "mainstream": 7947,
      "protest": 7948,
      "gifted": 7949,
      "amounts": 7950,
      "questioned": 7951,
      "returning": 7952,
      "potter": 7953,
      "wallpaper": 7954,
      "expans": 7955,
      "exposing": 7956,
      "transport": 7957,
      "suspense": 7958,
      "victor": 7959,
      "effective": 7960,
      "dawn": 7961,
      "##books": 7962,
      "riding": 7963,
      "riders": 7964,
      "##shit": 7965,
      "##shirt": 7966,
      "internally": 7967,
      "dining": 7968,
      "element": 7969,
      "kissed": 7970,
      "sara": 7971,
      "sarah": 7972,
      "##vior": 7973,
      "profile": 7974,
      "comforting": 7975,
      "encouraged": 7976,
      "military": 7977,
      "milestone": 7978,
      "explains": 7979,
      "respectful": 7980,
      "hangover": 7981,
      "difficulty": 7982,
      "conditions": 7983,
      "layout": 7984,
      "promotion": 7985,
      "celebrated": 7986,
      "authent": 7987,
      "starter": 7988,
      "starved": 7989,
      "formula": 7990,
      "achieving": 7991,
      "weaker": 7992,
      "subjected": 7993,
      "footing": 7994,
      "raise": 7995,
      "existance": 7996,
      "desperation": 7997,
      "signific": 7998,
      "democr": 7999,
      "quietly": 8000,
      "covering": 8001,
      "crossing": 8002,
      "returns": 8003,
      "balanced": 8004,
      "exercising": 8005,
      "teenage": 8006,
      "purpos": 8007,
      "progressing": 8008,
      "tastes": 8009,
      "improved": 8010,
      "sundays": 8011,
      "systems": 8012,
      "tests": 8013,
      "texted": 8014,
      "texture": 8015,
      "odds": 8016,
      "paths": 8017,
      "heaviness": 8018,
      "heavier": 8019,
      "bitches": 8020,
      "programs": 8021,
      "targeted": 8022,
      "rolls": 8023,
      "rolling": 8024,
      "roller": 8025,
      "combine": 8026,
      "bloody": 8027,
      "releases": 8028,
      "recognised": 8029,
      "recognized": 8030,
      "secrets": 8031,
      "verse": 8032,
      "denied": 8033,
      "massage": 8034,
      "massively": 8035,
      "##obi": 8036,
      "authority": 8037,
      "immediate": 8038,
      "organised": 8039,
      "organized": 8040,
      "contribution": 8041,
      "destruct": 8042,
      "strip": 8043,
      "strike": 8044,
      "requests": 8045,
      "increasing": 8046,
      "increased": 8047,
      "ballet": 8048,
      "gigantic": 8049,
      "giggle": 8050,
      "label": 8051,
      "labour": 8052,
      "abandonment": 8053,
      "alarm": 8054,
      "girlfriends": 8055,
      "cosm": 8056,
      "tablets": 8057,
      "dismiss": 8058,
      "treasures": 8059,
      "psychotic": 8060,
      "panicky": 8061,
      "##hyd": 8062,
      "preferably": 8063,
      "gradually": 8064,
      "medications": 8065,
      "pursuits": 8066,
      "occasions": 8067,
      "casting": 8068,
      "mercy": 8069,
      "nurse": 8070,
      "animal": 8071,
      "escap": 8072,
      "anticipating": 8073,
      "dreading": 8074,
      "##forward": 8075,
      "injust": 8076,
      "injured": 8077,
      "chicks": 8078,
      "novels": 8079,
      "writes": 8080,
      "separated": 8081,
      "recording": 8082,
      "references": 8083,
      "pairs": 8084,
      "tempered": 8085,
      "temperatures": 8086,
      "pounding": 8087,
      "selection": 8088,
      "femin": 8089,
      "feminist": 8090,
      "degrees": 8091,
      "passionately": 8092,
      "complaints": 8093,
      "obligated": 8094,
      "multitude": 8095,
      "maternal": 8096,
      "safely": 8097,
      "sucker": 8098,
      "accomplishments": 8099,
      "raped": 8100,
      "rapidly": 8101,
      "ordeal": 8102,
      "credits": 8103,
      "##ployment": 8104,
      "indulging": 8105,
      "indulgent": 8106,
      "fulfillment": 8107,
      "benign": 8108,
      "campus": 8109,
      "patr": 8110,
      "patri": 8111,
      "sugars": 8112,
      "updates": 8113,
      "intentionally": 8114,
      "cravings": 8115,
      "consistent": 8116,
      "crowded": 8117,
      "deem": 8118,
      "linked": 8119,
      "linux": 8120,
      "##rupted": 8121,
      "initially": 8122,
      "lifted": 8123,
      "stretching": 8124,
      "forehead": 8125,
      "missionary": 8126,
      "essential": 8127,
      "recovery": 8128,
      "technology": 8129,
      "nerve": 8130,
      "tuned": 8131,
      "virus": 8132,
      "stealing": 8133,
      "shirts": 8134,
      "cherish": 8135,
      "traditions": 8136,
      "dramatically": 8137,
      "delivered": 8138,
      "graduated": 8139,
      "bullshit": 8140,
      "jeans": 8141,
      "ambul": 8142,
      "blindly": 8143,
      "comparatively": 8144,
      "wrap": 8145,
      "yelled": 8146,
      "golden": 8147,
      "angeles": 8148,
      "disappeared": 8149,
      "encountered": 8150,
      "cashier": 8151,
      "dignity": 8152,
      "funds": 8153,
      "geor": 8154,
      "tackling": 8155,
      "##world": 8156,
      "##ulsion": 8157,
      "chaotic": 8158,
      "phrases": 8159,
      "smoothly": 8160,
      "methods": 8161,
      "associate": 8162,
      "association": 8163,
      "fleeting": 8164,
      "narrow": 8165,
      "pumped": 8166,
      "##screen": 8167,
      "##eeeeee": 8168,
      "primary": 8169,
      "unreason": 8170,
      "exhibit": 8171,
      "exhibition": 8172,
      "employees": 8173,
      "contemplate": 8174,
      "cramping": 8175,
      "declare": 8176,
      "declined": 8177,
      "priority": 8178,
      "infertility": 8179,
      "constructive": 8180,
      "economic": 8181,
      "occupied": 8182,
      "harmful": 8183,
      "grieve": 8184,
      "destroying": 8185,
      "destroyed": 8186,
      "bummed": 8187,
      "fiance": 8188,
      "lapse": 8189,
      "nyc": 8190,
      "ryan": 8191,
      "racism": 8192,
      "impressive": 8193,
      "washington": 8194,
      "concepts": 8195,
      "chapter": 8196,
      "intellectual": 8197,
      "flavor": 8198,
      "flavors": 8199,
      "decorations": 8200,
      "interviews": 8201,
      "independence": 8202,
      "instructions": 8203,
      "whispered": 8204,
      "dorky": 8205,
      "eternal": 8206,
      "junior": 8207,
      "##yyy": 8208,
      "lick": 8209,
      "license": 8210,
      "disoriented": 8211,
      "acquaint": 8212,
      "academic": 8213,
      "florida": 8214,
      "commitment": 8215,
      "simplicity": 8216,
      "miracles": 8217,
      "moisturizer": 8218,
      "citizens": 8219,
      "martin": 8220,
      "picnic": 8221,
      "alien": 8222,
      "fragrance": 8223,
      "agreed": 8224,
      "agreement": 8225,
      "proclaim": 8226,
      "remarkably": 8227,
      "marvelous": 8228,
      "legitimate": 8229,
      "engineering": 8230,
      "conducted": 8231,
      "abandoning": 8232,
      "disregarded": 8233,
      "ghost": 8234,
      "nagging": 8235,
      "tremend": 8236,
      "vomit": 8237,
      "##uttering": 8238,
      "solemn": 8239,
      "enormous": 8240,
      "envelope": 8241,
      "emptiness": 8242,
      "diagnosis": 8243,
      "appropriately": 8244,
      "mobile": 8245,
      "anguish": 8246,
      "greeted": 8247,
      "##phoria": 8248,
      "forgiveness": 8249,
      "advocate": 8250,
      "compromised": 8251,
      "eggs": 8252,
      "gamer": 8253,
      "gesture": 8254,
      "hmmm": 8255,
      "lisa": 8256,
      "mournful": 8257,
      "pulse": 8258,
      "piano": 8259,
      "sections": 8260,
      "tsunami": 8261,
      "tingle": 8262,
      "zombie": 8263,
      "bewildered": 8264,
      "mystery": 8265,
      "stirred": 8266,
      "congrat": 8267,
      "champagne": 8268,
      "outdoors": 8269,
      "spontaneous": 8270,
      "platform": 8271,
      "insults": 8272,
      "twisted": 8273,
      "disconnected": 8274,
      "attribute": 8275,
      "restricted": 8276,
      "marginalized": 8277,
      "commercial": 8278,
      "controlled": 8279,
      "evaluate": 8280,
      "historical": 8281,
      "unnatural": 8282,
      "hypocrite": 8283,
      "coworkers": 8284,
      "athletic": 8285,
      "stereotype": 8286,
      "aussie": 8287,
      "cooper": 8288,
      "geek": 8289,
      "mutual": 8290,
      "padding": 8291,
      "reread": 8292,
      "tantrum": 8293,
      "woeful": 8294,
      "thyroid": 8295,
      "repercuss": 8296,
      "oncolog": 8297,
      "israel": 8298,
      "abdomen": 8299,
      "nephe": 8300,
      "chicago": 8301,
      "outrage": 8302,
      "strokes": 8303,
      "attachment": 8304,
      "tribute": 8305,
      "trigger": 8306,
      "conspiracy": 8307,
      "assignments": 8308,
      "ignorance": 8309,
      "divorce": 8310,
      "accommodate": 8311,
      "condescending": 8312,
      "demonstr": 8313,
      "cupcake": 8314,
      "scenario": 8315,
      "ingredients": 8316,
      "baptized": 8317,
      "michael": 8318,
      "teleph": 8319,
      "rejuvenated": 8320,
      "benedict": 8321,
      "bipolar": 8322,
      "cubicle": 8323,
      "downt": 8324,
      "daughters": 8325,
      "epidural": 8326,
      "hilarious": 8327,
      "jersey": 8328,
      "jordan": 8329,
      "luggage": 8330,
      "mundane": 8331,
      "pakistan": 8332,
      "tissue": 8333,
      "zealand": 8334,
      "february": 8335,
      "italian": 8336,
      "stellar": 8337,
      "stolen": 8338,
      "amsterdam": 8339,
      "shimmer": 8340,
      "trimester": 8341,
      "encompass": 8342,
      "deodorant": 8343,
      "impatience": 8344,
      "syndrome": 8345,
      "underneath": 8346,
      "photograp": 8347,
      "significantly": 8348,
      "aa": 8349,
      "ax": 8350,
      "ak": 8351,
      "aj": 8352,
      "ain": 8353,
      "ari": 8354,
      "ail": 8355,
      "aaa": 8356,
      "ahaha": 8357,
      "bant": 8358,
      "bam": 8359,
      "bry": 8360,
      "bish": 8361,
      "buc": 8362,
      "biz": 8363,
      "bang": 8364,
      "bush": 8365,
      "barr": 8366,
      "borrow": 8367,
      "blend": 8368,
      "baff": 8369,
      "borders": 8370,
      "biolog": 8371,
      "cum": 8372,
      "cents": 8373,
      "cater": 8374,
      "cav": 8375,
      "cogn": 8376,
      "cries": 8377,
      "ds": 8378,
      "dh": 8379,
      "dd": 8380,
      "dur": 8381,
      "dive": 8382,
      "duct": 8383,
      "dual": 8384,
      "dorm": 8385,
      "dash": 8386,
      "dates": 8387,
      "dubl": 8388,
      "dave": 8389,
      "drew": 8390,
      "dimin": 8391,
      "daunt": 8392,
      "eh": 8393,
      "eri": 8394,
      "egy": 8395,
      "fare": 8396,
      "fought": 8397,
      "gf": 8398,
      "gm": 8399,
      "gw": 8400,
      "ging": 8401,
      "gle": 8402,
      "gly": 8403,
      "gul": 8404,
      "gag": 8405,
      "gush": 8406,
      "gosp": 8407,
      "gosh": 8408,
      "gimm": 8409,
      "gender": 8410,
      "hs": 8411,
      "hr": 8412,
      "hen": 8413,
      "hud": 8414,
      "hoc": 8415,
      "hump": 8416,
      "hire": 8417,
      "harrass": 8418,
      "honey": 8419,
      "hats": 8420,
      "hips": 8421,
      "ie": 8422,
      "ira": 8423,
      "iced": 8424,
      "ji": 8425,
      "jar": 8426,
      "jum": 8427,
      "jens": 8428,
      "jug": 8429,
      "july": 8430,
      "ku": 8431,
      "kg": 8432,
      "km": 8433,
      "kin": 8434,
      "kil": 8435,
      "kai": 8436,
      "lb": 8437,
      "lam": 8438,
      "lone": 8439,
      "lum": 8440,
      "lash": 8441,
      "lax": 8442,
      "lined": 8443,
      "loun": 8444,
      "laced": 8445,
      "lds": 8446,
      "mm": 8447,
      "mos": 8448,
      "mant": 8449,
      "mort": 8450,
      "mun": 8451,
      "mol": 8452,
      "mish": 8453,
      "mumb": 8454,
      "mouse": 8455,
      "mills": 8456,
      "merc": 8457,
      "mba": 8458,
      "ni": 8459,
      "nood": 8460,
      "nuc": 8461,
      "nath": 8462,
      "nug": 8463,
      "nude": 8464,
      "nosy": 8465,
      "oak": 8466,
      "obe": 8467,
      "oreg": 8468,
      "pb": 8469,
      "pel": 8470,
      "pess": 8471,
      "pos": 8472,
      "pause": 8473,
      "pist": 8474,
      "pure": 8475,
      "pies": 8476,
      "pod": 8477,
      "piz": 8478,
      "pms": 8479,
      "pimp": 8480,
      "pier": 8481,
      "pup": 8482,
      "pitch": 8483,
      "piling": 8484,
      "pomp": 8485,
      "ri": 8486,
      "rin": 8487,
      "rit": 8488,
      "rust": 8489,
      "rod": 8490,
      "raz": 8491,
      "rip": 8492,
      "rug": 8493,
      "ruth": 8494,
      "rup": 8495,
      "russ": 8496,
      "river": 8497,
      "ringing": 8498,
      "ses": 8499,
      "sid": 8500,
      "scept": 8501,
      "sang": 8502,
      "sket": 8503,
      "signed": 8504,
      "saint": 8505,
      "tt": 8506,
      "ta": 8507,
      "tac": 8508,
      "tart": 8509,
      "tuc": 8510,
      "tumb": 8511,
      "tire": 8512,
      "tail": 8513,
      "tatt": 8514,
      "taunt": 8515,
      "tuition": 8516,
      "vel": 8517,
      "vet": 8518,
      "vic": 8519,
      "vend": 8520,
      "void": 8521,
      "vamp": 8522,
      "vert": 8523,
      "vivid": 8524,
      "wo": 8525,
      "wi": 8526,
      "wt": 8527,
      "wp": 8528,
      "ww": 8529,
      "wen": 8530,
      "ware": 8531,
      "wiz": 8532,
      "wier": 8533,
      "wives": 8534,
      "xan": 8535,
      "xvi": 8536,
      "yor": 8537,
      "yash": 8538,
      "yuu": 8539,
      "zen": 8540,
      "zach": 8541,
      "zumb": 8542,
      "zimb": 8543,
      "##oot": 8544,
      "##obe": 8545,
      "##ias": 8546,
      "##iable": 8547,
      "##iber": 8548,
      "##iating": 8549,
      "##iator": 8550,
      "##nis": 8551,
      "##niss": 8552,
      "##ties": 8553,
      "##sen": 8554,
      "##hi": 8555,
      "##hend": 8556,
      "##hear": 8557,
      "##hand": 8558,
      "##hole": 8559,
      "##rent": 8560,
      "##ruc": 8561,
      "##rise": 8562,
      "##rings": 8563,
      "##rove": 8564,
      "##rayed": 8565,
      "##ractive": 8566,
      "##riched": 8567,
      "##li": 8568,
      "##la": 8569,
      "##lust": 8570,
      "##lam": 8571,
      "##lers": 8572,
      "##lace": 8573,
      "##lied": 8574,
      "##eu": 8575,
      "##eg": 8576,
      "##eur": 8577,
      "##eys": 8578,
      "##ded": 8579,
      "##dit": 8580,
      "##dies": 8581,
      "##vill": 8582,
      "##vell": 8583,
      "##vial": 8584,
      "##your": 8585,
      "##ygen": 8586,
      "##bf": 8587,
      "##bat": 8588,
      "##bes": 8589,
      "##bit": 8590,
      "##but": 8591,
      "##bul": 8592,
      "##bra": 8593,
      "##bies": 8594,
      "##both": 8595,
      "##bia": 8596,
      "##bucks": 8597,
      "##uk": 8598,
      "##uan": 8599,
      "##upp": 8600,
      "##uels": 8601,
      "##pg": 8602,
      "##ped": 8603,
      "##pon": 8604,
      "##pill": 8605,
      "##pri": 8606,
      "##pse": 8607,
      "##point": 8608,
      "##pired": 8609,
      "##piece": 8610,
      "##cle": 8611,
      "##cur": 8612,
      "##cest": 8613,
      "##cied": 8614,
      "##fty": 8615,
      "##face": 8616,
      "##fident": 8617,
      "##fying": 8618,
      "##front": 8619,
      "##fuels": 8620,
      "##gies": 8621,
      "##gage": 8622,
      "##girl": 8623,
      "##gments": 8624,
      "##zes": 8625,
      "##mo": 8626,
      "##mb": 8627,
      "##mes": 8628,
      "##mit": 8629,
      "##mus": 8630,
      "##mur": 8631,
      "##mond": 8632,
      "##math": 8633,
      "##wind": 8634,
      "##water": 8635,
      "##word": 8636,
      "##wright": 8637,
      "##wife": 8638,
      "##worthy": 8639,
      "##xins": 8640,
      "##ko": 8641,
      "##elve": 8642,
      "##iner": 8643,
      "##inal": 8644,
      "##inable": 8645,
      "##inity": 8646,
      "##inations": 8647,
      "##inobi": 8648,
      "thir": 8649,
      "thumb": 8650,
      "thail": 8651,
      "thund": 8652,
      "feast": 8653,
      "feared": 8654,
      "features": 8655,
      "##erving": 8656,
      "##ede": 8657,
      "##edding": 8658,
      "##ato": 8659,
      "##atri": 8660,
      "theories": 8661,
      "toe": 8662,
      "tooth": 8663,
      "toxins": 8664,
      "andre": 8665,
      "##encies": 8666,
      "##oric": 8667,
      "##orph": 8668,
      "##estern": 8669,
      "##onut": 8670,
      "##onven": 8671,
      "##itment": 8672,
      "##itute": 8673,
      "##itative": 8674,
      "##anity": 8675,
      "##anne": 8676,
      "##isan": 8677,
      "##isely": 8678,
      "##arm": 8679,
      "##arin": 8680,
      "##arious": 8681,
      "bee": 8682,
      "beast": 8683,
      "oft": 8684,
      "##asa": 8685,
      "##aser": 8686,
      "##omi": 8687,
      "##omet": 8688,
      "##omnia": 8689,
      "inanimate": 8690,
      "##vement": 8691,
      "myth": 8692,
      "myst": 8693,
      "##leb": 8694,
      "##lear": 8695,
      "##usk": 8696,
      "##usal": 8697,
      "##usions": 8698,
      "whore": 8699,
      "whist": 8700,
      "whack": 8701,
      "whip": 8702,
      "whoooo": 8703,
      "whipping": 8704,
      "##otional": 8705,
      "##utive": 8706,
      "##utting": 8707,
      "##utiny": 8708,
      "hamm": 8709,
      "haiku": 8710,
      "hacking": 8711,
      "lily": 8712,
      "liqu": 8713,
      "italy": 8714,
      "##aying": 8715,
      "##etes": 8716,
      "##etly": 8717,
      "##etown": 8718,
      "##etoric": 8719,
      "##icit": 8720,
      "##icting": 8721,
      "ster": 8722,
      "stad": 8723,
      "steep": 8724,
      "stating": 8725,
      "stats": 8726,
      "stages": 8727,
      "stormed": 8728,
      "storage": 8729,
      "stumped": 8730,
      "reps": 8731,
      "reilly": 8732,
      "rewr": 8733,
      "##ald": 8734,
      "##aling": 8735,
      "##alized": 8736,
      "sod": 8737,
      "soil": 8738,
      "soph": 8739,
      "socc": 8740,
      "##enth": 8741,
      "mexic": 8742,
      "onions": 8743,
      "forms": 8744,
      "foref": 8745,
      "##idal": 8746,
      "amy": 8747,
      "amish": 8748,
      "##acter": 8749,
      "##acher": 8750,
      "##acies": 8751,
      "##acles": 8752,
      "abide": 8753,
      "abys": 8754,
      "abro": 8755,
      "abusive": 8756,
      "##osure": 8757,
      "##osity": 8758,
      "##osoft": 8759,
      "##ada": 8760,
      "##adows": 8761,
      "##aduate": 8762,
      "notions": 8763,
      "##urt": 8764,
      "##uru": 8765,
      "shack": 8766,
      "shook": 8767,
      "ship": 8768,
      "shines": 8769,
      "shield": 8770,
      "shining": 8771,
      "shaming": 8772,
      "shattered": 8773,
      "shifting": 8774,
      "shinobi": 8775,
      "shadows": 8776,
      "##chan": 8777,
      "##chem": 8778,
      "##irky": 8779,
      "##ooo": 8780,
      "##the": 8781,
      "##theless": 8782,
      "atl": 8783,
      "atom": 8784,
      "##ria": 8785,
      "##ppines": 8786,
      "sue": 8787,
      "sugary": 8788,
      "##amous": 8789,
      "##term": 8790,
      "##oped": 8791,
      "##opath": 8792,
      "##opical": 8793,
      "##opia": 8794,
      "neat": 8795,
      "alice": 8796,
      "alert": 8797,
      "orth": 8798,
      "orph": 8799,
      "##ains": 8800,
      "##aine": 8801,
      "##arted": 8802,
      "##artic": 8803,
      "allah": 8804,
      "prest": 8805,
      "prick": 8806,
      "prime": 8807,
      "prices": 8808,
      "priced": 8809,
      "conso": 8810,
      "congreg": 8811,
      "comed": 8812,
      "knock": 8813,
      "knife": 8814,
      "chain": 8815,
      "chuff": 8816,
      "chewing": 8817,
      "unin": 8818,
      "unatt": 8819,
      "unins": 8820,
      "unfit": 8821,
      "unjust": 8822,
      "unbelie": 8823,
      "unchar": 8824,
      "exit": 8825,
      "upbeat": 8826,
      "upstairs": 8827,
      "upfront": 8828,
      "##abi": 8829,
      "##abber": 8830,
      "##abwe": 8831,
      "##abled": 8832,
      "someway": 8833,
      "maker": 8834,
      "donate": 8835,
      "frost": 8836,
      "frog": 8837,
      "france": 8838,
      "frail": 8839,
      "fraud": 8840,
      "loll": 8841,
      "loaded": 8842,
      "tram": 8843,
      "trade": 8844,
      "trump": 8845,
      "trapp": 8846,
      "tracking": 8847,
      "tropical": 8848,
      "getaway": 8849,
      "outer": 8850,
      "outings": 8851,
      "outbur": 8852,
      "outcomes": 8853,
      "##istent": 8854,
      "##ostrop": 8855,
      "bye": 8856,
      "##ellery": 8857,
      "##agued": 8858,
      "hows": 8859,
      "##estic": 8860,
      "enriched": 8861,
      "peak": 8862,
      "peach": 8863,
      "##ols": 8864,
      "##olves": 8865,
      "dejected": 8866,
      "dehyd": 8867,
      "##onged": 8868,
      "anyones": 8869,
      "##asting": 8870,
      "##astically": 8871,
      "##feeling": 8872,
      "##vens": 8873,
      "willi": 8874,
      "##ctions": 8875,
      "##ston": 8876,
      "##star": 8877,
      "##stal": 8878,
      "##ationally": 8879,
      "spill": 8880,
      "spain": 8881,
      "spine": 8882,
      "spouse": 8883,
      "spider": 8884,
      "spoon": 8885,
      "spilling": 8886,
      "##arding": 8887,
      "struck": 8888,
      "strutting": 8889,
      "themed": 8890,
      "disgr": 8891,
      "disability": 8892,
      "disrupt": 8893,
      "disinterest": 8894,
      "disorders": 8895,
      "agony": 8896,
      "blu": 8897,
      "bla": 8898,
      "blad": 8899,
      "bloss": 8900,
      "bloom": 8901,
      "blink": 8902,
      "blaming": 8903,
      "##ounds": 8904,
      "##ounded": 8905,
      "thanked": 8906,
      "ary": 8907,
      "arc": 8908,
      "intend": 8909,
      "intuition": 8910,
      "##ptop": 8911,
      "overs": 8912,
      "overe": 8913,
      "overp": 8914,
      "needless": 8915,
      "needlessly": 8916,
      "couldve": 8917,
      "nod": 8918,
      "noise": 8919,
      "noisy": 8920,
      "proven": 8921,
      "proced": 8922,
      "proceed": 8923,
      "##ishly": 8924,
      "##igate": 8925,
      "##igue": 8926,
      "##igans": 8927,
      "grim": 8928,
      "grits": 8929,
      "plight": 8930,
      "plug": 8931,
      "plagued": 8932,
      "##ieve": 8933,
      "quirky": 8934,
      "##ffers": 8935,
      "##ffect": 8936,
      "wrink": 8937,
      "awaken": 8938,
      "##ema": 8939,
      "##ematic": 8940,
      "##iche": 8941,
      "##ogen": 8942,
      "##ogging": 8943,
      "cling": 8944,
      "clip": 8945,
      "clues": 8946,
      "clicked": 8947,
      "client": 8948,
      "clique": 8949,
      "##ondent": 8950,
      "##pron": 8951,
      "sheet": 8952,
      "management": 8953,
      "comple": 8954,
      "compens": 8955,
      "##actical": 8956,
      "prett": 8957,
      "pretentious": 8958,
      "guiding": 8959,
      "resid": 8960,
      "resulted": 8961,
      "resume": 8962,
      "resulting": 8963,
      "reserved": 8964,
      "thru": 8965,
      "thrilling": 8966,
      "relation": 8967,
      "relating": 8968,
      "reliable": 8969,
      "offense": 8970,
      "workplace": 8971,
      "contest": 8972,
      "##udge": 8973,
      "inspect": 8974,
      "insomnia": 8975,
      "acne": 8976,
      "aftermath": 8977,
      "theirs": 8978,
      "remained": 8979,
      "##mentioned": 8980,
      "##ucive": 8981,
      "##ucky": 8982,
      "reads": 8983,
      "##oduct": 8984,
      "yearn": 8985,
      "divers": 8986,
      "bru": 8987,
      "brad": 8988,
      "broom": 8989,
      "bruce": 8990,
      "brides": 8991,
      "persu": 8992,
      "persever": 8993,
      "betty": 8994,
      "idk": 8995,
      "supporters": 8996,
      "##bert": 8997,
      "smiles": 8998,
      "coer": 8999,
      "coaching": 9000,
      "persons": 9001,
      "persona": 9002,
      "kindly": 9003,
      "sci": 9004,
      "scare": 9005,
      "sciss": 9006,
      "scented": 9007,
      "longed": 9008,
      "##ipated": 9009,
      "##inted": 9010,
      "sep": 9011,
      "lessen": 9012,
      "##hael": 9013,
      "drown": 9014,
      "##ceptible": 9015,
      "download": 9016,
      "downstairs": 9017,
      "perry": 9018,
      "percept": 9019,
      "nevertheless": 9020,
      "desiring": 9021,
      "mayhem": 9022,
      "heartedly": 9023,
      "heartache": 9024,
      "terrain": 9025,
      "glas": 9026,
      "glory": 9027,
      "glitter": 9028,
      "glancing": 9029,
      "weekly": 9030,
      "fave": 9031,
      "faking": 9032,
      "faux": 9033,
      "slo": 9034,
      "slam": 9035,
      "slate": 9036,
      "slice": 9037,
      "slugg": 9038,
      "slower": 9039,
      "slumber": 9040,
      "slipping": 9041,
      "slipped": 9042,
      "sinus": 9043,
      "##cible": 9044,
      "cro": 9045,
      "crud": 9046,
      "crimes": 9047,
      "crash": 9048,
      "cruz": 9049,
      "crimin": 9050,
      "genres": 9051,
      "confession": 9052,
      "confirm": 9053,
      "impot": 9054,
      "impacted": 9055,
      "implement": 9056,
      "flac": 9057,
      "flirty": 9058,
      "flipped": 9059,
      "##aps": 9060,
      "distanced": 9061,
      "##play": 9062,
      "##ontr": 9063,
      "lasted": 9064,
      "##tttt": 9065,
      "finals": 9066,
      "passport": 9067,
      "blogosphere": 9068,
      "owner": 9069,
      "owners": 9070,
      "teamed": 9071,
      "teasing": 9072,
      "phen": 9073,
      "phili": 9074,
      "phones": 9075,
      "phoned": 9076,
      "angle": 9077,
      "angsty": 9078,
      "worldly": 9079,
      "twin": 9080,
      "twitch": 9081,
      "twinges": 9082,
      "twelve": 9083,
      "morph": 9084,
      "mormon": 9085,
      "morbid": 9086,
      "##quake": 9087,
      "##ugal": 9088,
      "carn": 9089,
      "caress": 9090,
      "listens": 9091,
      "excel": 9092,
      "excruc": 9093,
      "excitment": 9094,
      "generic": 9095,
[...]
